{
  "version": "1.0",
  "truncation": null,
  "padding": null,
  "added_tokens": [
    {
      "id": 0,
      "content": "<pad>",
      "single_word": false,
      "lstrip": false,
      "rstrip": false,
      "normalized": false,
      "special": true
    },
    {
      "id": 1,
      "content": "<bos>",
      "single_word": false,
      "lstrip": false,
      "rstrip": false,
      "normalized": false,
      "special": true
    },
    {
      "id": 2,
      "content": "<sep>",
      "single_word": false,
      "lstrip": false,
      "rstrip": false,
      "normalized": false,
      "special": true
    },
    {
      "id": 3,
      "content": "<eos>",
      "single_word": false,
      "lstrip": false,
      "rstrip": false,
      "normalized": false,
      "special": true
    },
    {
      "id": 4,
      "content": "<unk>",
      "single_word": false,
      "lstrip": false,
      "rstrip": false,
      "normalized": false,
      "special": true
    }
  ],
  "normalizer": {
    "type": "Sequence",
    "normalizers": [
      {
        "type": "NFD"
      },
      {
        "type": "Lowercase"
      },
      {
        "type": "StripAccents"
      }
    ]
  },
  "pre_tokenizer": {
    "type": "Whitespace"
  },
  "post_processor": null,
  "decoder": null,
  "model": {
    "type": "BPE",
    "dropout": null,
    "unk_token": "<unk>",
    "continuing_subword_prefix": null,
    "end_of_word_suffix": null,
    "fuse_unk": false,
    "byte_fallback": false,
    "ignore_merges": false,
    "vocab": {
      "<pad>": 0,
      "<bos>": 1,
      "<sep>": 2,
      "<eos>": 3,
      "<unk>": 4,
      "!": 5,
      "\"": 6,
      "#": 7,
      "$": 8,
      "%": 9,
      "&": 10,
      "'": 11,
      "(": 12,
      ")": 13,
      "*": 14,
      "+": 15,
      ",": 16,
      "-": 17,
      ".": 18,
      "/": 19,
      "0": 20,
      "1": 21,
      "2": 22,
      "3": 23,
      "4": 24,
      "5": 25,
      "6": 26,
      "7": 27,
      "8": 28,
      "9": 29,
      ":": 30,
      ";": 31,
      "<": 32,
      "=": 33,
      ">": 34,
      "?": 35,
      "@": 36,
      "[": 37,
      "]": 38,
      "_": 39,
      "`": 40,
      "a": 41,
      "b": 42,
      "c": 43,
      "d": 44,
      "e": 45,
      "f": 46,
      "g": 47,
      "h": 48,
      "i": 49,
      "j": 50,
      "k": 51,
      "l": 52,
      "m": 53,
      "n": 54,
      "o": 55,
      "p": 56,
      "q": 57,
      "r": 58,
      "s": 59,
      "t": 60,
      "u": 61,
      "v": 62,
      "w": 63,
      "x": 64,
      "y": 65,
      "z": 66,
      "{": 67,
      "|": 68,
      "}": 69,
      "~": 70,
      "": 71,
      "": 72,
      "¡": 73,
      "¢": 74,
      "£": 75,
      "¦": 76,
      "§": 77,
      "ª": 78,
      "«": 79,
      "­": 80,
      "®": 81,
      "¯": 82,
      "°": 83,
      "²": 84,
      "³": 85,
      "´": 86,
      "¶": 87,
      "·": 88,
      "¹": 89,
      "»": 90,
      "½": 91,
      "¿": 92,
      "×": 93,
      "ß": 94,
      "æ": 95,
      "ð": 96,
      "ø": 97,
      "þ": 98,
      "đ": 99,
      "ı": 100,
      "ł": 101,
      "œ": 102,
      "ʼ": 103,
      "α": 104,
      "β": 105,
      "γ": 106,
      "δ": 107,
      "ε": 108,
      "ζ": 109,
      "η": 110,
      "θ": 111,
      "ι": 112,
      "κ": 113,
      "λ": 114,
      "μ": 115,
      "ν": 116,
      "ξ": 117,
      "ο": 118,
      "π": 119,
      "ρ": 120,
      "ς": 121,
      "σ": 122,
      "τ": 123,
      "υ": 124,
      "φ": 125,
      "χ": 126,
      "ω": 127,
      "а": 128,
      "б": 129,
      "в": 130,
      "г": 131,
      "д": 132,
      "е": 133,
      "ж": 134,
      "з": 135,
      "и": 136,
      "к": 137,
      "л": 138,
      "м": 139,
      "н": 140,
      "о": 141,
      "п": 142,
      "р": 143,
      "с": 144,
      "т": 145,
      "у": 146,
      "ф": 147,
      "х": 148,
      "ц": 149,
      "ч": 150,
      "ш": 151,
      "щ": 152,
      "ъ": 153,
      "ы": 154,
      "ь": 155,
      "э": 156,
      "ю": 157,
      "я": 158,
      "і": 159,
      "ј": 160,
      "ћ": 161,
      "א": 162,
      "ב": 163,
      "ד": 164,
      "ו": 165,
      "י": 166,
      "ל": 167,
      "ם": 168,
      "ר": 169,
      "ש": 170,
      "ا": 171,
      "ب": 172,
      "ة": 173,
      "ت": 174,
      "د": 175,
      "ر": 176,
      "س": 177,
      "ص": 178,
      "ض": 179,
      "ع": 180,
      "ف": 181,
      "ل": 182,
      "م": 183,
      "ن": 184,
      "و": 185,
      "ي": 186,
      "پ": 187,
      "ی": 188,
      "अ": 189,
      "आ": 190,
      "ए": 191,
      "क": 192,
      "ग": 193,
      "च": 194,
      "झ": 195,
      "ट": 196,
      "ड": 197,
      "त": 198,
      "थ": 199,
      "द": 200,
      "न": 201,
      "प": 202,
      "ब": 203,
      "म": 204,
      "य": 205,
      "र": 206,
      "ल": 207,
      "व": 208,
      "ष": 209,
      "स": 210,
      "ह": 211,
      "ஆ": 212,
      "ச": 213,
      "ண": 214,
      "த": 215,
      "ன": 216,
      "ப": 217,
      "ம": 218,
      "ய": 219,
      "ர": 220,
      "வ": 221,
      "ద": 222,
      "మ": 223,
      "ర": 224,
      "శ": 225,
      "స": 226,
      "హ": 227,
      "ค": 228,
      "ง": 229,
      "ฒ": 230,
      "ณ": 231,
      "ด": 232,
      "ธ": 233,
      "น": 234,
      "พ": 235,
      "ภ": 236,
      "ร": 237,
      "ว": 238,
      "ศ": 239,
      "ส": 240,
      "ห": 241,
      "า": 242,
      "แ": 243,
      "โ": 244,
      "ᄀ": 245,
      "ᄃ": 246,
      "ᄅ": 247,
      "ᄆ": 248,
      "ᄇ": 249,
      "ᄉ": 250,
      "ᄊ": 251,
      "ᄋ": 252,
      "ᄌ": 253,
      "ᄍ": 254,
      "ᄎ": 255,
      "ᄏ": 256,
      "ᄐ": 257,
      "ᄒ": 258,
      "ᅡ": 259,
      "ᅢ": 260,
      "ᅥ": 261,
      "ᅦ": 262,
      "ᅧ": 263,
      "ᅩ": 264,
      "ᅪ": 265,
      "ᅬ": 266,
      "ᅮ": 267,
      "ᅯ": 268,
      "ᅱ": 269,
      "ᅳ": 270,
      "ᅴ": 271,
      "ᅵ": 272,
      "ᆨ": 273,
      "ᆫ": 274,
      "ᆯ": 275,
      "ᆷ": 276,
      "ᆺ": 277,
      "ᆼ": 278,
      "ᆽ": 279,
      "​": 280,
      "‐": 281,
      "–": 282,
      "—": 283,
      "―": 284,
      "‘": 285,
      "’": 286,
      "“": 287,
      "”": 288,
      "„": 289,
      "…": 290,
      "″": 291,
      "№": 292,
      "™": 293,
      "⅓": 294,
      "ⅱ": 295,
      "→": 296,
      "−": 297,
      "∞": 298,
      "☆": 299,
      "う": 300,
      "か": 301,
      "け": 302,
      "さ": 303,
      "す": 304,
      "そ": 305,
      "た": 306,
      "ち": 307,
      "と": 308,
      "な": 309,
      "の": 310,
      "ひ": 311,
      "み": 312,
      "め": 313,
      "も": 314,
      "よ": 315,
      "ん": 316,
      "ァ": 317,
      "ィ": 318,
      "ス": 319,
      "タ": 320,
      "テ": 321,
      "フ": 322,
      "ホ": 323,
      "ン": 324,
      "・": 325,
      "世": 326,
      "事": 327,
      "件": 328,
      "任": 329,
      "俣": 330,
      "停": 331,
      "傳": 332,
      "凡": 333,
      "刚": 334,
      "务": 335,
      "卧": 336,
      "吴": 337,
      "地": 338,
      "大": 339,
      "奶": 340,
      "妈": 341,
      "姆": 342,
      "子": 343,
      "尼": 344,
      "平": 345,
      "底": 346,
      "府": 347,
      "廖": 348,
      "张": 349,
      "患": 350,
      "捣": 351,
      "時": 352,
      "杰": 353,
      "松": 354,
      "森": 355,
      "水": 356,
      "泽": 357,
      "海": 358,
      "然": 359,
      "爆": 360,
      "狗": 361,
      "玛": 362,
      "田": 363,
      "界": 364,
      "直": 365,
      "空": 366,
      "级": 367,
      "绝": 368,
      "绮": 369,
      "美": 370,
      "者": 371,
      "肥": 372,
      "自": 373,
      "莫": 374,
      "貓": 375,
      "超": 376,
      "車": 377,
      "连": 378,
      "长": 379,
      "隆": 380,
      "雅": 381,
      "難": 382,
      "雨": 383,
      "霸": 384,
      "黄": 385,
      "龙": 386,
      "ﬁ": 387,
      "�": 388,
      "he": 389,
      "an": 390,
      "in": 391,
      "er": 392,
      "re": 393,
      "the": 394,
      "en": 395,
      "on": 396,
      "st": 397,
      "or": 398,
      "ar": 399,
      "le": 400,
      "it": 401,
      "is": 402,
      "at": 403,
      "se": 404,
      "al": 405,
      "os": 406,
      "and": 407,
      "to": 408,
      "ing": 409,
      "om": 410,
      "es": 411,
      "il": 412,
      "ic": 413,
      "of": 414,
      "ou": 415,
      "ed": 416,
      "am": 417,
      "th": 418,
      "as": 419,
      "ke": 420,
      "ca": 421,
      "ds": 422,
      "ac": 423,
      "res": 424,
      "wor": 425,
      "ri": 426,
      "ion": 427,
      "el": 428,
      "ol": 429,
      "ch": 430,
      "ent": 431,
      "gen": 432,
      "de": 433,
      "ro": 434,
      "cast": 435,
      "tit": 436,
      "sep": 437,
      "key": 438,
      "bos": 439,
      "title": 440,
      "words": 441,
      "eos": 442,
      "genres": 443,
      "keywords": 444,
      "ir": 445,
      "un": 446,
      "ur": 447,
      "be": 448,
      "im": 449,
      "ad": 450,
      "ve": 451,
      "ho": 452,
      "li": 453,
      "lo": 454,
      "his": 455,
      "ge": 456,
      "com": 457,
      "ce": 458,
      "ter": 459,
      "ly": 460,
      "for": 461,
      "ra": 462,
      "her": 463,
      "ver": 464,
      "gh": 465,
      "ith": 466,
      "ay": 467,
      "ne": 468,
      "ill": 469,
      "ut": 470,
      "dr": 471,
      "hi": 472,
      "us": 473,
      "with": 474,
      "man": 475,
      "rom": 476,
      "mo": 477,
      "fe": 478,
      "id": 479,
      "ma": 480,
      "pe": 481,
      "ie": 482,
      "ama": 483,
      "te": 484,
      "ul": 485,
      "ts": 486,
      "ther": 487,
      "no": 488,
      "drama": 489,
      "ha": 490,
      "ation": 491,
      "ct": 492,
      "ab": 493,
      "do": 494,
      "me": 495,
      "di": 496,
      "oun": 497,
      "mar": 498,
      "co": 499,
      "all": 500,
      "by": 501,
      "ta": 502,
      "la": 503,
      "ers": 504,
      "bo": 505,
      "who": 506,
      "um": 507,
      "tr": 508,
      "con": 509,
      "one": 510,
      "edy": 511,
      "that": 512,
      "up": 513,
      "der": 514,
      "whe": 515,
      "ant": 516,
      "ag": 517,
      "jo": 518,
      "comedy": 519,
      "are": 520,
      "ist": 521,
      "out": 522,
      "wn": 523,
      "op": 524,
      "tion": 525,
      "ig": 526,
      "we": 527,
      "ack": 528,
      "she": 529,
      "ance": 530,
      "ure": 531,
      "ci": 532,
      "their": 533,
      "from": 534,
      "art": 535,
      "go": 536,
      "ex": 537,
      "end": 538,
      "ght": 539,
      "pl": 540,
      "ber": 541,
      "ard": 542,
      "ity": 543,
      "but": 544,
      "les": 545,
      "ous": 546,
      "po": 547,
      "ang": 548,
      "qu": 549,
      "ate": 550,
      "ster": 551,
      "fil": 552,
      "thr": 553,
      "da": 554,
      "ary": 555,
      "him": 556,
      "ine": 557,
      "af": 558,
      "son": 559,
      "ia": 560,
      "ap": 561,
      "so": 562,
      "sp": 563,
      "film": 564,
      "when": 565,
      "they": 566,
      "ves": 567,
      "ess": 568,
      "su": 569,
      "fam": 570,
      "iller": 571,
      "ust": 572,
      "ily": 573,
      "stor": 574,
      "per": 575,
      "fin": 576,
      "has": 577,
      "my": 578,
      "ian": 579,
      "wh": 580,
      "pro": 581,
      "fa": 582,
      "fri": 583,
      "br": 584,
      "od": 585,
      "fo": 586,
      "life": 587,
      "ear": 588,
      "ck": 589,
      "ld": 590,
      "ak": 591,
      "wom": 592,
      "ry": 593,
      "our": 594,
      "ive": 595,
      "ric": 596,
      "ud": 597,
      "ass": 598,
      "wo": 599,
      "ome": 600,
      "war": 601,
      "car": 602,
      "new": 603,
      "family": 604,
      "pa": 605,
      "hor": 606,
      "ev": 607,
      "ni": 608,
      "cl": 609,
      "tim": 610,
      "ell": 611,
      "cre": 612,
      "gr": 613,
      "sed": 614,
      "vi": 615,
      "ence": 616,
      "tra": 617,
      "ins": 618,
      "age": 619,
      "youn": 620,
      "ong": 621,
      "em": 622,
      "thriller": 623,
      "king": 624,
      "story": 625,
      "action": 626,
      "dis": 627,
      "young": 628,
      "sel": 629,
      "cri": 630,
      "love": 631,
      "ice": 632,
      "old": 633,
      "romance": 634,
      "ath": 635,
      "na": 636,
      "woman": 637,
      "this": 638,
      "fi": 639,
      "bl": 640,
      "hip": 641,
      "ies": 642,
      "ris": 643,
      "hel": 644,
      "ment": 645,
      "tt": 646,
      "ph": 647,
      "ren": 648,
      "ror": 649,
      "after": 650,
      "fr": 651,
      "way": 652,
      "into": 653,
      "ace": 654,
      "et": 655,
      "str": 656,
      "tur": 657,
      "sh": 658,
      "ba": 659,
      "ally": 660,
      "fic": 661,
      "year": 662,
      "je": 663,
      "bro": 664,
      "mon": 665,
      "ug": 666,
      "cum": 667,
      "ste": 668,
      "vent": 669,
      "ks": 670,
      "ctor": 671,
      "led": 672,
      "att": 673,
      "world": 674,
      "che": 675,
      "ue": 676,
      "ild": 677,
      "ends": 678,
      "hn": 679,
      "gir": 680,
      "land": 681,
      "iz": 682,
      "min": 683,
      "mur": 684,
      "ful": 685,
      "sa": 686,
      "cument": 687,
      "document": 688,
      "ving": 689,
      "act": 690,
      "bar": 691,
      "ses": 692,
      "can": 693,
      "girl": 694,
      "vel": 695,
      "pol": 696,
      "..": 697,
      "mer": 698,
      "rel": 699,
      "vie": 700,
      "them": 701,
      "cho": 702,
      "sho": 703,
      "ish": 704,
      "ko": 705,
      "documentary": 706,
      "crime": 707,
      "day": 708,
      "ach": 709,
      "si": 710,
      "two": 711,
      "john": 712,
      "ree": 713,
      "horror": 714,
      "mic": 715,
      "turn": 716,
      "mus": 717,
      "ations": 718,
      "fore": 719,
      "dire": 720,
      "ser": 721,
      "low": 722,
      "red": 723,
      "cr": 724,
      "col": 725,
      "ven": 726,
      "19": 727,
      "ans": 728,
      "ical": 729,
      "about": 730,
      "rist": 731,
      "ick": 732,
      "ff": 733,
      "har": 734,
      "ound": 735,
      "ough": 736,
      "ain": 737,
      "ty": 738,
      "not": 739,
      "will": 740,
      "ble": 741,
      "ger": 742,
      "tri": 743,
      "very": 744,
      "par": 745,
      "ka": 746,
      "dan": 747,
      "gu": 748,
      "des": 749,
      "was": 750,
      "ton": 751,
      "advent": 752,
      "ich": 753,
      "char": 754,
      "other": 755,
      "amer": 756,
      "ps": 757,
      "sci": 758,
      "its": 759,
      "myster": 760,
      "ious": 761,
      "wi": 762,
      "father": 763,
      "boy": 764,
      "ane": 765,
      "pre": 766,
      "por": 767,
      "now": 768,
      "off": 769,
      "thing": 770,
      "time": 771,
      "ite": 772,
      "murder": 773,
      "cal": 774,
      "don": 775,
      "friend": 776,
      "have": 777,
      "kes": 778,
      "ley": 779,
      "becom": 780,
      "dy": 781,
      "friends": 782,
      "val": 783,
      "mi": 784,
      "some": 785,
      "ame": 786,
      "ugh": 787,
      "self": 788,
      "cover": 789,
      "director": 790,
      "wer": 791,
      "pr": 792,
      "back": 793,
      "gre": 794,
      "ok": 795,
      "io": 796,
      "cor": 797,
      "pt": 798,
      "lea": 799,
      "pp": 800,
      "adventure": 801,
      "cent": 802,
      "child": 803,
      "ner": 804,
      "part": 805,
      "over": 806,
      "inter": 807,
      "ki": 808,
      "ind": 809,
      "lu": 810,
      "ated": 811,
      "sur": 812,
      "itt": 813,
      "ina": 814,
      "star": 815,
      "get": 816,
      "du": 817,
      "coun": 818,
      "ot": 819,
      "wil": 820,
      "mor": 821,
      "ces": 822,
      "ire": 823,
      "try": 824,
      "amp": 825,
      "hol": 826,
      "sm": 827,
      "find": 828,
      "mis": 829,
      "whi": 830,
      "scho": 831,
      "ign": 832,
      "gra": 833,
      "sion": 834,
      "christ": 835,
      "mat": 836,
      "town": 837,
      "bert": 838,
      "vis": 839,
      "fran": 840,
      "oup": 841,
      "americ": 842,
      "school": 843,
      "ker": 844,
      "where": 845,
      "den": 846,
      "while": 847,
      "relations": 848,
      "gi": 849,
      "gl": 850,
      "night": 851,
      "own": 852,
      "real": 853,
      "unt": 854,
      "anim": 855,
      "relationship": 856,
      "wa": 857,
      "sex": 858,
      "bel": 859,
      "pres": 860,
      "int": 861,
      "music": 862,
      "ident": 863,
      "band": 864,
      "men": 865,
      "mother": 866,
      "only": 867,
      "ep": 868,
      "que": 869,
      "ny": 870,
      "comp": 871,
      "under": 872,
      "bu": 873,
      "hu": 874,
      "years": 875,
      "fiction": 876,
      "ide": 877,
      "which": 878,
      "ouse": 879,
      "fir": 880,
      "ult": 881,
      "vin": 882,
      "sing": 883,
      "hael": 884,
      "play": 885,
      "bor": 886,
      "more": 887,
      "able": 888,
      "home": 889,
      "ial": 890,
      "ju": 891,
      "science": 892,
      "wife": 893,
      "van": 894,
      "ken": 895,
      "bur": 896,
      "vid": 897,
      "au": 898,
      "movie": 899,
      "jam": 900,
      "hard": 901,
      "based": 902,
      "ash": 903,
      "bet": 904,
      "death": 905,
      "ws": 906,
      "ughter": 907,
      "fall": 908,
      "michael": 909,
      "asy": 910,
      "ual": 911,
      "tor": 912,
      "cer": 913,
      "ens": 914,
      "uring": 915,
      "ney": 916,
      "ale": 917,
      "vic": 918,
      "ning": 919,
      "hen": 920,
      "oss": 921,
      "sup": 922,
      "beg": 923,
      "brother": 924,
      "first": 925,
      "daughter": 926,
      "ction": 927,
      "cy": 928,
      "pat": 929,
      "any": 930,
      "what": 931,
      "mystery": 932,
      "just": 933,
      "bri": 934,
      "less": 935,
      "wr": 936,
      "dep": 937,
      "house": 938,
      "va": 939,
      "through": 940,
      "again": 941,
      "lin": 942,
      "ely": 943,
      "every": 944,
      "mas": 945,
      "bre": 946,
      "fer": 947,
      "ater": 948,
      "ja": 949,
      "fant": 950,
      "ents": 951,
      "secre": 952,
      "use": 953,
      "police": 954,
      "fol": 955,
      "marri": 956,
      "ange": 957,
      "og": 958,
      "teen": 959,
      "high": 960,
      "ved": 961,
      "ung": 962,
      "pris": 963,
      "vol": 964,
      "lie": 965,
      "finds": 966,
      "plo": 967,
      "win": 968,
      "cle": 969,
      "ben": 970,
      "dre": 971,
      "cla": 972,
      "ward": 973,
      "lives": 974,
      "down": 975,
      "must": 976,
      "ban": 977,
      "most": 978,
      "nor": 979,
      "sus": 980,
      "help": 981,
      "tem": 982,
      "discover": 983,
      "eng": 984,
      "ween": 985,
      "during": 986,
      "american": 987,
      "ky": 988,
      "city": 989,
      "jack": 990,
      "rob": 991,
      "ced": 992,
      "fantasy": 993,
      "...": 994,
      "vo": 995,
      "nat": 996,
      "tom": 997,
      "ga": 998,
      "peop": 999,
      "erson": 1000,
      "ates": 1001,
      "dar": 1002,
      "mc": 1003,
      "sol": 1004,
      "han": 1005,
      "james": 1006,
      "gang": 1007,
      "people": 1008,
      "david": 1009,
      "ft": 1010,
      "del": 1011,
      "there": 1012,
      "cha": 1013,
      "tin": 1014,
      "form": 1015,
      "let": 1016,
      "ler": 1017,
      "take": 1018,
      "set": 1019,
      "robert": 1020,
      "make": 1021,
      "aut": 1022,
      "dead": 1023,
      "kill": 1024,
      "comm": 1025,
      "been": 1026,
      "cess": 1027,
      "far": 1028,
      "well": 1029,
      "ital": 1030,
      "three": 1031,
      "takes": 1032,
      "ob": 1033,
      "run": 1034,
      "ating": 1035,
      "ism": 1036,
      "fl": 1037,
      "cted": 1038,
      "bus": 1039,
      "secret": 1040,
      "tre": 1041,
      "),": 1042,
      "ise": 1043,
      "work": 1044,
      "history": 1045,
      "ams": 1046,
      "between": 1047,
      "tal": 1048,
      "ru": 1049,
      "nam": 1050,
      "wal": 1051,
      "sha": 1052,
      "pri": 1053,
      "black": 1054,
      "ters": 1055,
      "bi": 1056,
      "pos": 1057,
      "ness": 1058,
      "return": 1059,
      "cial": 1060,
      "law": 1061,
      "ana": 1062,
      "follow": 1063,
      "00": 1064,
      "animation": 1065,
      "ings": 1066,
      "ali": 1067,
      "ister": 1068,
      "small": 1069,
      "arch": 1070,
      "male": 1071,
      "gan": 1072,
      "sc": 1073,
      "lee": 1074,
      "tain": 1075,
      "paul": 1076,
      "sy": 1077,
      "long": 1078,
      "spe": 1079,
      "wan": 1080,
      "depend": 1081,
      "hus": 1082,
      "oney": 1083,
      "becomes": 1084,
      "ara": 1085,
      "see": 1086,
      "prison": 1087,
      "than": 1088,
      "cu": 1089,
      "like": 1090,
      "being": 1091,
      "sam": 1092,
      "himself": 1093,
      "yor": 1094,
      "even": 1095,
      "willi": 1096,
      "aren": 1097,
      "jon": 1098,
      "gar": 1099,
      "group": 1100,
      "ann": 1101,
      "independ": 1102,
      "before": 1103,
      "happ": 1104,
      "stud": 1105,
      "ould": 1106,
      "you": 1107,
      "jour": 1108,
      "ars": 1109,
      "cap": 1110,
      "ier": 1111,
      "med": 1112,
      "also": 1113,
      "gets": 1114,
      "lead": 1115,
      "blo": 1116,
      "est": 1117,
      "fight": 1118,
      "husband": 1119,
      "ham": 1120,
      "als": 1121,
      "soon": 1122,
      "rest": 1123,
      "ling": 1124,
      "ast": 1125,
      "ding": 1126,
      "ition": 1127,
      "cur": 1128,
      "then": 1129,
      "lon": 1130,
      "geor": 1131,
      "independent": 1132,
      "row": 1133,
      "sou": 1134,
      "vil": 1135,
      "ted": 1136,
      "york": 1137,
      "how": 1138,
      "drug": 1139,
      "may": 1140,
      "anger": 1141,
      "vill": 1142,
      "ors": 1143,
      "super": 1144,
      "care": 1145,
      "dri": 1146,
      "colle": 1147,
      "rus": 1148,
      "pen": 1149,
      "dec": 1150,
      "against": 1151,
      "exper": 1152,
      "wood": 1153,
      "mag": 1154,
      "hand": 1155,
      "beaut": 1156,
      "richard": 1157,
      "tell": 1158,
      "stand": 1159,
      "viol": 1160,
      "ys": 1161,
      "gether": 1162,
      "together": 1163,
      "best": 1164,
      "ze": 1165,
      "iness": 1166,
      "power": 1167,
      "venge": 1168,
      "ten": 1169,
      "come": 1170,
      "last": 1171,
      "dra": 1172,
      "stern": 1173,
      "live": 1174,
      "ress": 1175,
      "big": 1176,
      "bal": 1177,
      "kar": 1178,
      "psy": 1179,
      "sim": 1180,
      "foreign": 1181,
      "head": 1182,
      "human": 1183,
      "cat": 1184,
      "peter": 1185,
      "mee": 1186,
      "die": 1187,
      "each": 1188,
      "ti": 1189,
      "host": 1190,
      "person": 1191,
      "sen": 1192,
      "ray": 1193,
      "spir": 1194,
      "class": 1195,
      "does": 1196,
      "port": 1197,
      "mil": 1198,
      "if": 1199,
      "ures": 1200,
      "plan": 1201,
      "jean": 1202,
      "vest": 1203,
      "lor": 1204,
      "sco": 1205,
      "tect": 1206,
      "kid": 1207,
      "ffer": 1208,
      "true": 1209,
      "become": 1210,
      "ution": 1211,
      "fu": 1212,
      "sin": 1213,
      "ides": 1214,
      "tv": 1215,
      "killer": 1216,
      "mid": 1217,
      "appe": 1218,
      "olog": 1219,
      "mal": 1220,
      "living": 1221,
      "ii": 1222,
      "meets": 1223,
      "vir": 1224,
      "break": 1225,
      "ron": 1226,
      "money": 1227,
      "job": 1228,
      "ura": 1229,
      "know": 1230,
      "women": 1231,
      "0s": 1232,
      "paren": 1233,
      "ason": 1234,
      "wed": 1235,
      "vers": 1236,
      "clo": 1237,
      "good": 1238,
      "country": 1239,
      "novel": 1240,
      "mad": 1241,
      "children": 1242,
      "ye": 1243,
      "goes": 1244,
      "hero": 1245,
      "ip": 1246,
      "ittle": 1247,
      "wit": 1248,
      "igh": 1249,
      "roy": 1250,
      "sister": 1251,
      "show": 1252,
      "ited": 1253,
      "andre": 1254,
      "fair": 1255,
      "mel": 1256,
      "stop": 1257,
      "hes": 1258,
      "arn": 1259,
      "both": 1260,
      "sum": 1261,
      "begins": 1262,
      "lou": 1263,
      "phil": 1264,
      "fun": 1265,
      "alex": 1266,
      "little": 1267,
      "ene": 1268,
      "cident": 1269,
      "invest": 1270,
      "falls": 1271,
      "gor": 1272,
      "gun": 1273,
      "western": 1274,
      "attem": 1275,
      "iel": 1276,
      "san": 1277,
      "bra": 1278,
      "alth": 1279,
      "hood": 1280,
      "fre": 1281,
      "mu": 1282,
      "comes": 1283,
      "away": 1284,
      "ball": 1285,
      "ya": 1286,
      "had": 1287,
      "vor": 1288,
      "batt": 1289,
      "female": 1290,
      "ore": 1291,
      "pu": 1292,
      "ino": 1293,
      "leg": 1294,
      "many": 1295,
      "investig": 1296,
      "ond": 1297,
      "chi": 1298,
      "mysterious": 1299,
      "order": 1300,
      "cape": 1301,
      "ions": 1302,
      "jim": 1303,
      "local": 1304,
      "travel": 1305,
      "--": 1306,
      "cra": 1307,
      "ped": 1308,
      "ady": 1309,
      "tries": 1310,
      "coup": 1311,
      "past": 1312,
      "indi": 1313,
      "phy": 1314,
      "mark": 1315,
      "george": 1316,
      "kno": 1317,
      "cour": 1318,
      "howe": 1319,
      "iful": 1320,
      "dou": 1321,
      "blood": 1322,
      "suc": 1323,
      "iter": 1324,
      "los": 1325,
      "rad": 1326,
      "ele": 1327,
      "however": 1328,
      "polit": 1329,
      "beautiful": 1330,
      "ms": 1331,
      "kin": 1332,
      "rac": 1333,
      "william": 1334,
      "around": 1335,
      "kel": 1336,
      "sil": 1337,
      "four": 1338,
      "revenge": 1339,
      "ict": 1340,
      "acher": 1341,
      "ony": 1342,
      "fort": 1343,
      "lar": 1344,
      "rock": 1345,
      "ano": 1346,
      "ager": 1347,
      "seem": 1348,
      "oper": 1349,
      "ually": 1350,
      "anne": 1351,
      "strug": 1352,
      "team": 1353,
      "nap": 1354,
      "put": 1355,
      "ury": 1356,
      "omb": 1357,
      "sch": 1358,
      "meet": 1359,
      "bil": 1360,
      "prof": 1361,
      "ator": 1362,
      "camp": 1363,
      "loo": 1364,
      "din": 1365,
      "dark": 1366,
      "business": 1367,
      "journey": 1368,
      "nud": 1369,
      "thom": 1370,
      "bir": 1371,
      "hit": 1372,
      "nudity": 1373,
      "ring": 1374,
      "former": 1375,
      "marriage": 1376,
      "ics": 1377,
      "dest": 1378,
      "ef": 1379,
      "yu": 1380,
      "wants": 1381,
      "step": 1382,
      "bill": 1383,
      "named": 1384,
      "heart": 1385,
      "search": 1386,
      "frank": 1387,
      "room": 1388,
      "ort": 1389,
      "train": 1390,
      "body": 1391,
      "anna": 1392,
      "hal": 1393,
      "ists": 1394,
      "place": 1395,
      "hot": 1396,
      "pop": 1397,
      "sexual": 1398,
      "decides": 1399,
      "tru": 1400,
      "accident": 1401,
      "jap": 1402,
      "test": 1403,
      "uni": 1404,
      "jor": 1405,
      "trans": 1406,
      "discovers": 1407,
      "face": 1408,
      "island": 1409,
      "another": 1410,
      "never": 1411,
      "musical": 1412,
      "ight": 1413,
      "zz": 1414,
      "evil": 1415,
      "bit": 1416,
      "pass": 1417,
      "dog": 1418,
      "air": 1419,
      "side": 1420,
      "gy": 1421,
      "ji": 1422,
      "wat": 1423,
      "quest": 1424,
      "hy": 1425,
      "ald": 1426,
      "cts": 1427,
      "gri": 1428,
      "anth": 1429,
      "dom": 1430,
      "ont": 1431,
      "escape": 1432,
      "angel": 1433,
      "series": 1434,
      "ica": 1435,
      "white": 1436,
      "jen": 1437,
      "rick": 1438,
      "bab": 1439,
      "prin": 1440,
      "ow": 1441,
      "jer": 1442,
      "offic": 1443,
      "hun": 1444,
      "nation": 1445,
      "incl": 1446,
      "eld": 1447,
      "hed": 1448,
      "learn": 1449,
      "ek": 1450,
      "pect": 1451,
      "ford": 1452,
      "later": 1453,
      "mission": 1454,
      "until": 1455,
      "arri": 1456,
      "sub": 1457,
      "kil": 1458,
      "start": 1459,
      "martin": 1460,
      "rey": 1461,
      "ities": 1462,
      "contr": 1463,
      "earth": 1464,
      "road": 1465,
      "feat": 1466,
      "stit": 1467,
      "couple": 1468,
      ").": 1469,
      "sent": 1470,
      "za": 1471,
      "juli": 1472,
      "bul": 1473,
      "iv": 1474,
      "dden": 1475,
      "rol": 1476,
      "ute": 1477,
      "known": 1478,
      "pur": 1479,
      "isa": 1480,
      "ple": 1481,
      "tw": 1482,
      "grand": 1483,
      "turns": 1484,
      "mem": 1485,
      "nan": 1486,
      "sty": 1487,
      "hop": 1488,
      "daniel": 1489,
      "ately": 1490,
      "ah": 1491,
      "save": 1492,
      "friendship": 1493,
      "were": 1494,
      "paris": 1495,
      "kidnap": 1496,
      "deal": 1497,
      "made": 1498,
      "battle": 1499,
      "lyn": 1500,
      "produ": 1501,
      "christmas": 1502,
      "nes": 1503,
      "shor": 1504,
      "ub": 1505,
      "village": 1506,
      "terror": 1507,
      "trou": 1508,
      "brit": 1509,
      "success": 1510,
      "cas": 1511,
      "cus": 1512,
      "hind": 1513,
      "mart": 1514,
      "things": 1515,
      "parents": 1516,
      "whose": 1517,
      "ular": 1518,
      "space": 1519,
      "reg": 1520,
      "detect": 1521,
      "mary": 1522,
      "eu": 1523,
      "call": 1524,
      "teacher": 1525,
      "student": 1526,
      "found": 1527,
      "joe": 1528,
      "survi": 1529,
      "fut": 1530,
      "ral": 1531,
      "rup": 1532,
      "gold": 1533,
      "acy": 1534,
      "dream": 1535,
      "bad": 1536,
      "rich": 1537,
      "nie": 1538,
      "too": 1539,
      "cher": 1540,
      "jan": 1541,
      "commun": 1542,
      "mit": 1543,
      "light": 1544,
      "sal": 1545,
      "married": 1546,
      "game": 1547,
      "ship": 1548,
      "party": 1549,
      "sey": 1550,
      "same": 1551,
      "sequ": 1552,
      "ever": 1553,
      "mill": 1554,
      "lost": 1555,
      "cult": 1556,
      "belie": 1557,
      "along": 1558,
      "violence": 1559,
      "chang": 1560,
      "oc": 1561,
      "crimin": 1562,
      "ran": 1563,
      "soldi": 1564,
      "invol": 1565,
      "cop": 1566,
      "ku": 1567,
      "mir": 1568,
      "scott": 1569,
      "great": 1570,
      "ston": 1571,
      "fren": 1572,
      "kim": 1573,
      "hea": 1574,
      "stre": 1575,
      "stu": 1576,
      "gay": 1577,
      "ita": 1578,
      "behind": 1579,
      "free": 1580,
      "doctor": 1581,
      "charles": 1582,
      "once": 1583,
      "ross": 1584,
      "stri": 1585,
      "berg": 1586,
      "girlfriend": 1587,
      "danger": 1588,
      "nic": 1589,
      "20": 1590,
      "pho": 1591,
      "tting": 1592,
      "ways": 1593,
      "days": 1594,
      "gam": 1595,
      "uel": 1596,
      "army": 1597,
      "cause": 1598,
      "right": 1599,
      "includ": 1600,
      "ches": 1601,
      "tells": 1602,
      "short": 1603,
      "follows": 1604,
      "selves": 1605,
      "hell": 1606,
      "fan": 1607,
      "detective": 1608,
      "differ": 1609,
      "ural": 1610,
      "ming": 1611,
      "ket": 1612,
      "capt": 1613,
      "french": 1614,
      "agent": 1615,
      "tho": 1616,
      "pal": 1617,
      "tro": 1618,
      "inger": 1619,
      "var": 1620,
      "prom": 1621,
      "begin": 1622,
      "profess": 1623,
      "fac": 1624,
      "stru": 1625,
      "gover": 1626,
      "ena": 1627,
      "mac": 1628,
      "dle": 1629,
      "ec": 1630,
      "themselves": 1631,
      "shar": 1632,
      "fel": 1633,
      "ros": 1634,
      "thor": 1635,
      "college": 1636,
      "summer": 1637,
      "thre": 1638,
      "attack": 1639,
      "dor": 1640,
      "sat": 1641,
      "want": 1642,
      "gon": 1643,
      "xt": 1644,
      "charac": 1645,
      "ov": 1646,
      "hom": 1647,
      "hunt": 1648,
      "neigh": 1649,
      "beth": 1650,
      "dist": 1651,
      "book": 1652,
      "future": 1653,
      "russ": 1654,
      "bon": 1655,
      "elli": 1656,
      "trying": 1657,
      "scient": 1658,
      "forced": 1659,
      "graphy": 1660,
      "left": 1661,
      "strugg": 1662,
      "attempt": 1663,
      "andy": 1664,
      "returns": 1665,
      "near": 1666,
      "zi": 1667,
      "these": 1668,
      "girls": 1669,
      "makes": 1670,
      "gener": 1671,
      "ences": 1672,
      "ues": 1673,
      "gue": 1674,
      "ingly": 1675,
      "going": 1676,
      "sell": 1677,
      "killed": 1678,
      "special": 1679,
      "bed": 1680,
      "nick": 1681,
      "ude": 1682,
      "fect": 1683,
      "jud": 1684,
      "apart": 1685,
      "ram": 1686,
      "cau": 1687,
      "actor": 1688,
      "osp": 1689,
      "affair": 1690,
      "still": 1691,
      "ghts": 1692,
      "mean": 1693,
      "ai": 1694,
      "london": 1695,
      "case": 1696,
      "thomas": 1697,
      "working": 1698,
      "herself": 1699,
      "west": 1700,
      "icide": 1701,
      "tte": 1702,
      "legen": 1703,
      "bio": 1704,
      "ander": 1705,
      "gg": 1706,
      "sever": 1707,
      "antic": 1708,
      "sl": 1709,
      "bell": 1710,
      "won": 1711,
      "look": 1712,
      "century": 1713,
      "starts": 1714,
      "alien": 1715,
      "top": 1716,
      "aw": 1717,
      "lover": 1718,
      "feel": 1719,
      "jac": 1720,
      "sara": 1721,
      "ages": 1722,
      "tage": 1723,
      "chan": 1724,
      "moun": 1725,
      "ini": 1726,
      "vide": 1727,
      "writer": 1728,
      "ges": 1729,
      "threat": 1730,
      "xic": 1731,
      "zy": 1732,
      "sto": 1733,
      "chris": 1734,
      "events": 1735,
      "iting": 1736,
      "keep": 1737,
      "trip": 1738,
      "tale": 1739,
      "post": 1740,
      "sun": 1741,
      "maria": 1742,
      "psych": 1743,
      "ago": 1744,
      "everything": 1745,
      "add": 1746,
      "need": 1747,
      "personal": 1748,
      "ying": 1749,
      "soc": 1750,
      "mist": 1751,
      "nal": 1752,
      "cam": 1753,
      "kat": 1754,
      "would": 1755,
      "thin": 1756,
      "main": 1757,
      "field": 1758,
      "making": 1759,
      "front": 1760,
      "cond": 1761,
      "lan": 1762,
      "inv": 1763,
      "bers": 1764,
      "middle": 1765,
      "une": 1766,
      "termin": 1767,
      "vy": 1768,
      "explo": 1769,
      "wis": 1770,
      "pected": 1771,
      "gin": 1772,
      "bas": 1773,
      "enter": 1774,
      "dies": 1775,
      "dol": 1776,
      "mes": 1777,
      "master": 1778,
      "america": 1779,
      "hum": 1780,
      "control": 1781,
      "proble": 1782,
      "event": 1783,
      "realiz": 1784,
      "experi": 1785,
      "british": 1786,
      "jason": 1787,
      "god": 1788,
      "publ": 1789,
      "ghost": 1790,
      "christop": 1791,
      "much": 1792,
      "famous": 1793,
      "company": 1794,
      "max": 1795,
      "street": 1796,
      "ought": 1797,
      "bob": 1798,
      "jeff": 1799,
      "dreams": 1800,
      "ping": 1801,
      "yer": 1802,
      "phan": 1803,
      "boys": 1804,
      "change": 1805,
      "gro": 1806,
      "mr": 1807,
      "bru": 1808,
      "smith": 1809,
      "coming": 1810,
      "wel": 1811,
      "anda": 1812,
      "late": 1813,
      "tar": 1814,
      "ert": 1815,
      "ured": 1816,
      "neighbor": 1817,
      "ll": 1818,
      "nar": 1819,
      "artist": 1820,
      "water": 1821,
      "bank": 1822,
      "pier": 1823,
      "legend": 1824,
      "having": 1825,
      "pic": 1826,
      "german": 1827,
      "without": 1828,
      "teenage": 1829,
      "zo": 1830,
      "national": 1831,
      "ison": 1832,
      "bring": 1833,
      "steve": 1834,
      "jones": 1835,
      "iety": 1836,
      "sand": 1837,
      "ination": 1838,
      "govern": 1839,
      "called": 1840,
      "something": 1841,
      "bud": 1842,
      "five": 1843,
      "line": 1844,
      "revol": 1845,
      "sport": 1846,
      "victor": 1847,
      "ile": 1848,
      "jane": 1849,
      "ative": 1850,
      "wealth": 1851,
      "patrick": 1852,
      "sid": 1853,
      "rap": 1854,
      "anton": 1855,
      "career": 1856,
      "works": 1857,
      "strange": 1858,
      "south": 1859,
      "because": 1860,
      "aust": 1861,
      "suicide": 1862,
      "henry": 1863,
      "stan": 1864,
      "ada": 1865,
      "hope": 1866,
      "club": 1867,
      "doesn": 1868,
      "ders": 1869,
      "kevin": 1870,
      "mexic": 1871,
      "pts": 1872,
      "race": 1873,
      "leads": 1874,
      "andon": 1875,
      "christopher": 1876,
      "ives": 1877,
      "prostit": 1878,
      "michel": 1879,
      "build": 1880,
      "wild": 1881,
      "thir": 1882,
      "cro": 1883,
      "trag": 1884,
      "england": 1885,
      "wers": 1886,
      "ending": 1887,
      "hosp": 1888,
      "next": 1889,
      "wedding": 1890,
      "photo": 1891,
      "cia": 1892,
      "tic": 1893,
      "memor": 1894,
      "fire": 1895,
      "including": 1896,
      "wol": 1897,
      "cing": 1898,
      "sor": 1899,
      "move": 1900,
      "encoun": 1901,
      "different": 1902,
      "thy": 1903,
      "ief": 1904,
      "social": 1905,
      "cir": 1906,
      "spo": 1907,
      "appear": 1908,
      "mom": 1909,
      "arts": 1910,
      "officer": 1911,
      "hospital": 1912,
      "ines": 1913,
      "elle": 1914,
      "assass": 1915,
      "baby": 1916,
      "government": 1917,
      "anese": 1918,
      "jay": 1919,
      "compe": 1920,
      "magic": 1921,
      "ground": 1922,
      "sible": 1923,
      "loy": 1924,
      "mann": 1925,
      "rid": 1926,
      "devel": 1927,
      "cide": 1928,
      "tony": 1929,
      "197": 1930,
      "louis": 1931,
      "200": 1932,
      "ira": 1933,
      "wid": 1934,
      "lywood": 1935,
      "fle": 1936,
      "fred": 1937,
      "oli": 1938,
      "cred": 1939,
      "civil": 1940,
      "brothers": 1941,
      "seems": 1942,
      "name": 1943,
      "relea": 1944,
      "stay": 1945,
      "ado": 1946,
      "deep": 1947,
      "robber": 1948,
      "could": 1949,
      "wall": 1950,
      "mind": 1951,
      "guy": 1952,
      "upon": 1953,
      "stephen": 1954,
      "leon": 1955,
      "claim": 1956,
      "teenager": 1957,
      "gab": 1958,
      "milit": 1959,
      "political": 1960,
      "pon": 1961,
      "shi": 1962,
      "using": 1963,
      "poor": 1964,
      "christian": 1965,
      "expl": 1966,
      "sea": 1967,
      "cele": 1968,
      "dern": 1969,
      "hil": 1970,
      "vamp": 1971,
      "reve": 1972,
      "monster": 1973,
      "ked": 1974,
      "allen": 1975,
      "lock": 1976,
      "cis": 1977,
      "ella": 1978,
      "obses": 1979,
      "experim": 1980,
      "camer": 1981,
      "hay": 1982,
      "force": 1983,
      "motion": 1984,
      "afric": 1985,
      "kins": 1986,
      "sw": 1987,
      "sla": 1988,
      "eric": 1989,
      "tele": 1990,
      "since": 1991,
      "mass": 1992,
      "contin": 1993,
      "pay": 1994,
      "atic": 1995,
      "singer": 1996,
      "japanese": 1997,
      "adam": 1998,
      "serv": 1999,
      "gn": 2000,
      "vision": 2001,
      "victim": 2002,
      "boss": 2003,
      "ey": 2004,
      "lies": 2005,
      "track": 2006,
      "dem": 2007,
      "desper": 2008,
      "stories": 2009,
      "across": 2010,
      "anthony": 2011,
      "biography": 2012,
      "develop": 2013,
      "song": 2014,
      "chen": 2015,
      "laure": 2016,
      "cul": 2017,
      "yo": 2018,
      "crew": 2019,
      "ized": 2020,
      "cru": 2021,
      "court": 2022,
      "orig": 2023,
      "shot": 2024,
      "ik": 2025,
      "pan": 2026,
      "bat": 2027,
      "emplo": 2028,
      "childhood": 2029,
      "join": 2030,
      "viet": 2031,
      "charlie": 2032,
      "hall": 2033,
      "dev": 2034,
      "unk": 2035,
      "box": 2036,
      "tty": 2037,
      "18": 2038,
      "decide": 2039,
      "foot": 2040,
      "woo": 2041,
      "harry": 2042,
      "close": 2043,
      "dangerous": 2044,
      "expected": 2045,
      "serial": 2046,
      "spirit": 2047,
      "ology": 2048,
      "those": 2049,
      "gil": 2050,
      "forces": 2051,
      "leave": 2052,
      "hotel": 2053,
      "criminal": 2054,
      "eve": 2055,
      "gest": 2056,
      "stars": 2057,
      "cli": 2058,
      "though": 2059,
      "matt": 2060,
      "romantic": 2061,
      "moon": 2062,
      "cue": 2063,
      "ryan": 2064,
      "times": 2065,
      "cel": 2066,
      "lab": 2067,
      "inf": 2068,
      "ject": 2069,
      "intervie": 2070,
      "stal": 2071,
      "sudden": 2072,
      "jr": 2073,
      "conf": 2074,
      "leader": 2075,
      "sets": 2076,
      "identity": 2077,
      "finally": 2078,
      "robin": 2079,
      "birth": 2080,
      "jos": 2081,
      "pir": 2082,
      "rival": 2083,
      "iza": 2084,
      "aur": 2085,
      "bla": 2086,
      "kate": 2087,
      "kind": 2088,
      "nis": 2089,
      "ned": 2090,
      "uc": 2091,
      "iday": 2092,
      "gal": 2093,
      "ting": 2094,
      "ened": 2095,
      "chance": 2096,
      "single": 2097,
      "clear": 2098,
      "public": 2099,
      "boyfriend": 2100,
      "pped": 2101,
      "holiday": 2102,
      "athan": 2103,
      "itten": 2104,
      "france": 2105,
      "attr": 2106,
      "quick": 2107,
      "196": 2108,
      "taking": 2109,
      "point": 2110,
      "tan": 2111,
      "outs": 2112,
      "leaves": 2113,
      "loss": 2114,
      "press": 2115,
      "bb": 2116,
      "sit": 2117,
      "bara": 2118,
      "donald": 2119,
      "nifer": 2120,
      "society": 2121,
      "ged": 2122,
      "nel": 2123,
      "franco": 2124,
      "pie": 2125,
      "escap": 2126,
      "ola": 2127,
      "farm": 2128,
      "six": 2129,
      "williams": 2130,
      "dam": 2131,
      "fig": 2132,
      "successful": 2133,
      "nu": 2134,
      "present": 2135,
      ".,": 2136,
      "pil": 2137,
      "rescue": 2138,
      "determin": 2139,
      "bec": 2140,
      "haunt": 2141,
      "taken": 2142,
      "jennifer": 2143,
      "learns": 2144,
      "ening": 2145,
      "several": 2146,
      "military": 2147,
      "stra": 2148,
      "owner": 2149,
      "natural": 2150,
      "pher": 2151,
      "board": 2152,
      "corrup": 2153,
      "virgin": 2154,
      "video": 2155,
      "mut": 2156,
      "alan": 2157,
      "rober": 2158,
      "park": 2159,
      "wrong": 2160,
      "involved": 2161,
      "tay": 2162,
      "brian": 2163,
      "ons": 2164,
      "russian": 2165,
      "looking": 2166,
      "scientist": 2167,
      "kee": 2168,
      "angeles": 2169,
      "truth": 2170,
      "bruce": 2171,
      "aged": 2172,
      "cut": 2173,
      "hold": 2174,
      "demon": 2175,
      "interest": 2176,
      "otage": 2177,
      "maker": 2178,
      "whom": 2179,
      "credits": 2180,
      "pas": 2181,
      "reality": 2182,
      "brid": 2183,
      "nia": 2184,
      "killing": 2185,
      "jes": 2186,
      "tour": 2187,
      "bot": 2188,
      "harris": 2189,
      "ching": 2190,
      "danny": 2191,
      "second": 2192,
      "count": 2193,
      "soldier": 2194,
      "celebr": 2195,
      "und": 2196,
      "jess": 2197,
      "jung": 2198,
      "brown": 2199,
      "cross": 2200,
      "happy": 2201,
      "ffic": 2202,
      "refu": 2203,
      "rif": 2204,
      "therine": 2205,
      "noir": 2206,
      "perfect": 2207,
      "itor": 2208,
      "priv": 2209,
      "bing": 2210,
      "list": 2211,
      "everyone": 2212,
      "met": 2213,
      "strong": 2214,
      "martial": 2215,
      "bol": 2216,
      "len": 2217,
      "forest": 2218,
      "kids": 2219,
      "apartment": 2220,
      "dance": 2221,
      "modern": 2222,
      "vac": 2223,
      "lig": 2224,
      "pense": 2225,
      "billy": 2226,
      "mond": 2227,
      "plot": 2228,
      "recor": 2229,
      "ls": 2230,
      "lam": 2231,
      "non": 2232,
      "ani": 2233,
      "fear": 2234,
      "creat": 2235,
      "kelly": 2236,
      "alco": 2237,
      "marie": 2238,
      "otic": 2239,
      "wealthy": 2240,
      "few": 2241,
      "organ": 2242,
      "pair": 2243,
      "author": 2244,
      "word": 2245,
      "eliza": 2246,
      "pursu": 2247,
      "pla": 2248,
      "yet": 2249,
      "destroy": 2250,
      "experiment": 2251,
      "bin": 2252,
      "inno": 2253,
      "stone": 2254,
      "ils": 2255,
      "ility": 2256,
      "bomb": 2257,
      "stinger": 2258,
      "marry": 2259,
      "clar": 2260,
      "dro": 2261,
      "hon": 2262,
      "creditsstinger": 2263,
      "def": 2264,
      "comic": 2265,
      "concer": 2266,
      "istic": 2267,
      "iled": 2268,
      "ns": 2269,
      "ery": 2270,
      "rie": 2271,
      "pers": 2272,
      "vive": 2273,
      "repor": 2274,
      "state": 2275,
      "rope": 2276,
      "joan": 2277,
      "rice": 2278,
      "gangster": 2279,
      "hollywood": 2280,
      "mike": 2281,
      "sarah": 2282,
      "taylor": 2283,
      "krist": 2284,
      "nothing": 2285,
      "missing": 2286,
      "suspense": 2287,
      "station": 2288,
      "getting": 2289,
      "kir": 2290,
      "imag": 2291,
      "born": 2292,
      "cou": 2293,
      "wish": 2294,
      "alone": 2295,
      "barbara": 2296,
      "194": 2297,
      "compl": 2298,
      "brut": 2299,
      "pi": 2300,
      "incre": 2301,
      "green": 2302,
      "swe": 2303,
      "always": 2304,
      "ultim": 2305,
      "journal": 2306,
      "cris": 2307,
      "eddie": 2308,
      "scre": 2309,
      "tent": 2310,
      "unexpected": 2311,
      "nik": 2312,
      "rent": 2313,
      "hill": 2314,
      "mig": 2315,
      "itation": 2316,
      "plans": 2317,
      "origin": 2318,
      "cept": 2319,
      "bling": 2320,
      "198": 2321,
      "alcohol": 2322,
      "pul": 2323,
      "anti": 2324,
      "strang": 2325,
      "conne": 2326,
      "queen": 2327,
      "lad": 2328,
      "arm": 2329,
      "francis": 2330,
      "cine": 2331,
      "your": 2332,
      "rage": 2333,
      "lauren": 2334,
      "sad": 2335,
      "gling": 2336,
      "ush": 2337,
      "gent": 2338,
      "revolution": 2339,
      "grow": 2340,
      "wart": 2341,
      "zomb": 2342,
      "ites": 2343,
      "oshi": 2344,
      "beat": 2345,
      "moves": 2346,
      "pierre": 2347,
      "portra": 2348,
      "luck": 2349,
      "students": 2350,
      ",\"": 2351,
      "kath": 2352,
      "anci": 2353,
      "early": 2354,
      "north": 2355,
      "member": 2356,
      "sky": 2357,
      "tou": 2358,
      "boo": 2359,
      "carol": 2360,
      "full": 2361,
      "ruth": 2362,
      "dun": 2363,
      "bey": 2364,
      "desp": 2365,
      "grad": 2366,
      "mental": 2367,
      "planet": 2368,
      "aster": 2369,
      "fly": 2370,
      "kay": 2371,
      "lot": 2372,
      "private": 2373,
      "east": 2374,
      "lord": 2375,
      "sequel": 2376,
      "gas": 2377,
      "josep": 2378,
      "directed": 2379,
      "bak": 2380,
      "lim": 2381,
      "mach": 2382,
      "num": 2383,
      "ole": 2384,
      "ili": 2385,
      "footage": 2386,
      "vincent": 2387,
      "powerful": 2388,
      "fur": 2389,
      "era": 2390,
      "ari": 2391,
      "barry": 2392,
      "written": 2393,
      "bt": 2394,
      "hunter": 2395,
      "characters": 2396,
      "elizabeth": 2397,
      "captain": 2398,
      "vampire": 2399,
      "suddenly": 2400,
      "wy": 2401,
      "stic": 2402,
      "199": 2403,
      "joseph": 2404,
      "give": 2405,
      "final": 2406,
      "rence": 2407,
      "chase": 2408,
      "violent": 2409,
      "ami": 2410,
      "thur": 2411,
      "lady": 2412,
      "ption": 2413,
      "glas": 2414,
      "protect": 2415,
      "attempts": 2416,
      "style": 2417,
      "bian": 2418,
      "uation": 2419,
      "among": 2420,
      "united": 2421,
      "ared": 2422,
      "plac": 2423,
      "murdered": 2424,
      "deadly": 2425,
      "photogra": 2426,
      "exec": 2427,
      "robbery": 2428,
      "rece": 2429,
      "sean": 2430,
      "ments": 2431,
      "desert": 2432,
      "cali": 2433,
      "community": 2434,
      "iss": 2435,
      "ional": 2436,
      "sle": 2437,
      "convin": 2438,
      "professor": 2439,
      "flo": 2440,
      "ato": 2441,
      "rose": 2442,
      "tech": 2443,
      "week": 2444,
      "films": 2445,
      "classic": 2446,
      "az": 2447,
      "itz": 2448,
      "youth": 2449,
      "investigation": 2450,
      "cade": 2451,
      "arrives": 2452,
      "appears": 2453,
      "laura": 2454,
      "japan": 2455,
      "trouble": 2456,
      "really": 2457,
      "matthe": 2458,
      "aid": 2459,
      "gard": 2460,
      "union": 2461,
      "divor": 2462,
      "lands": 2463,
      "johnson": 2464,
      "faith": 2465,
      "popular": 2466,
      "europe": 2467,
      "yan": 2468,
      "stage": 2469,
      "alous": 2470,
      "edward": 2471,
      "joy": 2472,
      "ax": 2473,
      "aki": 2474,
      "passion": 2475,
      "ready": 2476,
      "johnny": 2477,
      "simon": 2478,
      "members": 2479,
      "hour": 2480,
      "remo": 2481,
      ".\"": 2482,
      "rog": 2483,
      "president": 2484,
      "plays": 2485,
      "plane": 2486,
      "eventually": 2487,
      "determined": 2488,
      "asure": 2489,
      "abandon": 2490,
      "tti": 2491,
      "wolf": 2492,
      "did": 2493,
      "seen": 2494,
      "davis": 2495,
      "base": 2496,
      "kills": 2497,
      "quickly": 2498,
      "julie": 2499,
      "hands": 2500,
      "cin": 2501,
      "oto": 2502,
      "path": 2503,
      "brad": 2504,
      "walter": 2505,
      "hur": 2506,
      "tex": 2507,
      "stead": 2508,
      "ants": 2509,
      "respon": 2510,
      "sheri": 2511,
      "shows": 2512,
      "susan": 2513,
      "von": 2514,
      "hat": 2515,
      "sche": 2516,
      "million": 2517,
      "problems": 2518,
      "tu": 2519,
      "ished": 2520,
      "visit": 2521,
      "histor": 2522,
      "such": 2523,
      "10": 2524,
      "pse": 2525,
      "alice": 2526,
      "others": 2527,
      "philip": 2528,
      "peace": 2529,
      "stein": 2530,
      "course": 2531,
      "inside": 2532,
      "posses": 2533,
      "following": 2534,
      "despite": 2535,
      "sters": 2536,
      "sett": 2537,
      "comple": 2538,
      "bles": 2539,
      "engl": 2540,
      "thern": 2541,
      "hart": 2542,
      "snow": 2543,
      "olas": 2544,
      "uncle": 2545,
      "beach": 2546,
      "roman": 2547,
      "powers": 2548,
      "culture": 2549,
      "vely": 2550,
      "stant": 2551,
      "ically": 2552,
      "dson": 2553,
      "witch": 2554,
      "relig": 2555,
      "orphan": 2556,
      "ula": 2557,
      "califor": 2558,
      "mol": 2559,
      "cow": 2560,
      "animal": 2561,
      "prince": 2562,
      "cup": 2563,
      "emotion": 2564,
      "serge": 2565,
      "partner": 2566,
      "mate": 2567,
      "gene": 2568,
      "within": 2569,
      "survive": 2570,
      "\",": 2571,
      "told": 2572,
      "older": 2573,
      "italian": 2574,
      "struggle": 2575,
      "ancient": 2576,
      "fate": 2577,
      "say": 2578,
      "seven": 2579,
      "ichi": 2580,
      "sedu": 2581,
      "lawyer": 2582,
      "exist": 2583,
      "loc": 2584,
      "net": 2585,
      "\".": 2586,
      "mari": 2587,
      "embar": 2588,
      "guard": 2589,
      "justice": 2590,
      "loves": 2591,
      "nancy": 2592,
      "released": 2593,
      "via": 2594,
      "runs": 2595,
      "fighting": 2596,
      "meanwhile": 2597,
      "ded": 2598,
      "ski": 2599,
      "deli": 2600,
      "ela": 2601,
      "ette": 2602,
      "ths": 2603,
      "competit": 2604,
      "gabri": 2605,
      "lewis": 2606,
      "brings": 2607,
      "mare": 2608,
      "spi": 2609,
      "jealous": 2610,
      "crash": 2611,
      "wilson": 2612,
      "catherine": 2613,
      "mob": 2614,
      "kov": 2615,
      "california": 2616,
      "silent": 2617,
      "khan": 2618,
      "ised": 2619,
      "caught": 2620,
      "appro": 2621,
      "aka": 2622,
      "fish": 2623,
      "gian": 2624,
      "phe": 2625,
      "pin": 2626,
      "sti": 2627,
      "amy": 2628,
      "wards": 2629,
      "nazi": 2630,
      "bren": 2631,
      "pet": 2632,
      "trad": 2633,
      "eva": 2634,
      "given": 2635,
      "scene": 2636,
      "ville": 2637,
      "tam": 2638,
      "sees": 2639,
      "howard": 2640,
      "perform": 2641,
      "prostitute": 2642,
      "horse": 2643,
      "naz": 2644,
      "driver": 2645,
      "apo": 2646,
      "comed": 2647,
      "major": 2648,
      "posed": 2649,
      "dying": 2650,
      "jacqu": 2651,
      "gary": 2652,
      "half": 2653,
      "ific": 2654,
      "complic": 2655,
      "tat": 2656,
      "ret": 2657,
      "role": 2658,
      "figh": 2659,
      "ization": 2660,
      "195": 2661,
      "squ": 2662,
      "ordin": 2663,
      "moore": 2664,
      "fellow": 2665,
      "winter": 2666,
      "entire": 2667,
      "ophi": 2668,
      "blind": 2669,
      "ronic": 2670,
      "dick": 2671,
      "tis": 2672,
      "store": 2673,
      "ime": 2674,
      "morgan": 2675,
      "eye": 2676,
      "cost": 2677,
      "confl": 2678,
      "pression": 2679,
      "matthew": 2680,
      "rape": 2681,
      "might": 2682,
      "gives": 2683,
      "building": 2684,
      "illa": 2685,
      "adventures": 2686,
      "princess": 2687,
      "feature": 2688,
      "sac": 2689,
      "marsh": 2690,
      "spy": 2691,
      "transform": 2692,
      "changes": 2693,
      "champ": 2694,
      "recent": 2695,
      "dean": 2696,
      "younger": 2697,
      "roberts": 2698,
      "reporter": 2699,
      "stree": 2700,
      "legal": 2701,
      "bour": 2702,
      "got": 2703,
      "rise": 2704,
      "soldiers": 2705,
      "english": 2706,
      "mont": 2707,
      "vacation": 2708,
      "fab": 2709,
      "nur": 2710,
      "rain": 2711,
      "quin": 2712,
      "musician": 2713,
      "fat": 2714,
      "othy": 2715,
      "uter": 2716,
      "ea": 2717,
      "ida": 2718,
      "russell": 2719,
      "dragon": 2720,
      "knows": 2721,
      "radio": 2722,
      "struggles": 2723,
      "nol": 2724,
      "pap": 2725,
      "uk": 2726,
      "aches": 2727,
      "shel": 2728,
      "haunted": 2729,
      "separ": 2730,
      "food": 2731,
      "priest": 2732,
      "jessica": 2733,
      "las": 2734,
      "mountain": 2735,
      "ordinary": 2736,
      "lum": 2737,
      "arthur": 2738,
      "lem": 2739,
      "jose": 2740,
      "broad": 2741,
      "fal": 2742,
      "sk": 2743,
      "adult": 2744,
      "turned": 2745,
      "treat": 2746,
      "struction": 2747,
      "remote": 2748,
      "enough": 2749,
      "atter": 2750,
      "murders": 2751,
      "dut": 2752,
      "uses": 2753,
      "here": 2754,
      "river": 2755,
      "dad": 2756,
      "nich": 2757,
      "sab": 2758,
      "wing": 2759,
      "adop": 2760,
      "ider": 2761,
      "dennis": 2762,
      "jun": 2763,
      "nand": 2764,
      "aly": 2765,
      "vey": 2766,
      "indian": 2767,
      "bled": 2768,
      "cold": 2769,
      "miller": 2770,
      "arrest": 2771,
      "china": 2772,
      "germany": 2773,
      "indust": 2774,
      "sexuality": 2775,
      "mine": 2776,
      "stol": 2777,
      "illi": 2778,
      "possible": 2779,
      "pac": 2780,
      "ered": 2781,
      "ises": 2782,
      "cros": 2783,
      "boat": 2784,
      "why": 2785,
      "freed": 2786,
      "douglas": 2787,
      "adap": 2788,
      "becoming": 2789,
      "austral": 2790,
      "door": 2791,
      "vier": 2792,
      "193": 2793,
      "forman": 2794,
      "filmmaker": 2795,
      "news": 2796,
      "giant": 2797,
      "round": 2798,
      "ched": 2799,
      "activ": 2800,
      "pregn": 2801,
      "crisis": 2802,
      "glo": 2803,
      "drin": 2804,
      "survival": 2805,
      "hing": 2806,
      "ense": 2807,
      "vies": 2808,
      "actress": 2809,
      "tort": 2810,
      "nature": 2811,
      "kidnapping": 2812,
      "character": 2813,
      "invent": 2814,
      "worth": 2815,
      "jackson": 2816,
      "jonathan": 2817,
      "mexico": 2818,
      "convic": 2819,
      "fiance": 2820,
      "shoot": 2821,
      "legendary": 2822,
      "sign": 2823,
      "states": 2824,
      "gram": 2825,
      "ined": 2826,
      "read": 2827,
      "adul": 2828,
      "kore": 2829,
      "assassin": 2830,
      "attract": 2831,
      "15": 2832,
      "gio": 2833,
      "ration": 2834,
      "ona": 2835,
      "alter": 2836,
      "alive": 2837,
      "assign": 2838,
      "ize": 2839,
      "relationships": 2840,
      "playing": 2841,
      "better": 2842,
      "used": 2843,
      "thro": 2844,
      "chur": 2845,
      "shop": 2846,
      "surpris": 2847,
      "andrew": 2848,
      "zombie": 2849,
      "grant": 2850,
      "supernatural": 2851,
      "journalist": 2852,
      "hang": 2853,
      "shock": 2854,
      "univers": 2855,
      "woods": 2856,
      "figure": 2857,
      "brutal": 2858,
      "pregnant": 2859,
      "bis": 2860,
      "lisa": 2861,
      "py": 2862,
      "zu": 2863,
      "plant": 2864,
      "blue": 2865,
      "texas": 2866,
      "steven": 2867,
      "ardo": 2868,
      "devil": 2869,
      "ously": 2870,
      "rachel": 2871,
      "fortun": 2872,
      "ake": 2873,
      "lang": 2874,
      "dece": 2875,
      "desperate": 2876,
      "sheriff": 2877,
      "ient": 2878,
      "rit": 2879,
      "bern": 2880,
      "prove": 2881,
      "travels": 2882,
      "fast": 2883,
      "12": 2884,
      "bly": 2885,
      "worker": 2886,
      "sons": 2887,
      "000": 2888,
      "stock": 2889,
      "marg": 2890,
      "steal": 2891,
      "suspect": 2892,
      "ological": 2893,
      "interviews": 2894,
      "rand": 2895,
      "haw": 2896,
      "native": 2897,
      "leading": 2898,
      "encounter": 2899,
      "smo": 2900,
      "instead": 2901,
      "rebel": 2902,
      "adri": 2903,
      "pose": 2904,
      "trapped": 2905,
      "view": 2906,
      "question": 2907,
      "bac": 2908,
      "ila": 2909,
      "various": 2910,
      "experience": 2911,
      "kers": 2912,
      "sist": 2913,
      "sword": 2914,
      "computer": 2915,
      "scen": 2916,
      "screen": 2917,
      "mail": 2918,
      "extre": 2919,
      "helen": 2920,
      "cell": 2921,
      "lau": 2922,
      "fox": 2923,
      "miss": 2924,
      "mun": 2925,
      "chine": 2926,
      "castle": 2927,
      "hidden": 2928,
      "usa": 2929,
      "roll": 2930,
      "thief": 2931,
      "assist": 2932,
      "talent": 2933,
      "africa": 2934,
      "bs": 2935,
      "partic": 2936,
      "sleep": 2937,
      "hir": 2938,
      "sophi": 2939,
      "vig": 2940,
      "bear": 2941,
      "nett": 2942,
      "brand": 2943,
      "eral": 2944,
      "ito": 2945,
      "akes": 2946,
      "church": 2947,
      "chinese": 2948,
      "zer": 2949,
      "dee": 2950,
      "falling": 2951,
      "gie": 2952,
      "chronic": 2953,
      "veter": 2954,
      "safe": 2955,
      "double": 2956,
      "streets": 2957,
      "mess": 2958,
      "import": 2959,
      "leaving": 2960,
      "international": 2961,
      "secrets": 2962,
      "bun": 2963,
      "kur": 2964,
      "stem": 2965,
      "storm": 2966,
      "wait": 2967,
      "hanna": 2968,
      "soul": 2969,
      "factor": 2970,
      "duringcreditsstinger": 2971,
      "memory": 2972,
      "eyes": 2973,
      "jin": 2974,
      "kas": 2975,
      "ask": 2976,
      "imp": 2977,
      "open": 2978,
      "enemy": 2979,
      "fia": 2980,
      "beauty": 2981,
      "struggling": 2982,
      "original": 2983,
      "fed": 2984,
      "hung": 2985,
      "chu": 2986,
      "died": 2987,
      "wea": 2988,
      "winning": 2989,
      "bes": 2990,
      "arian": 2991,
      "allow": 2992,
      "usive": 2993,
      "aging": 2994,
      "stranger": 2995,
      "needs": 2996,
      "television": 2997,
      "uncover": 2998,
      "mik": 2999,
      "drugs": 3000,
      "india": 3001,
      "general": 3002,
      "realizes": 3003,
      "bum": 3004,
      "pict": 3005,
      "hide": 3006,
      "iling": 3007,
      "performan": 3008,
      "warri": 3009,
      "restaur": 3010,
      "josh": 3011,
      "pilot": 3012,
      "beyond": 3013,
      "ix": 3014,
      "ory": 3015,
      "mafia": 3016,
      "parent": 3017,
      "mos": 3018,
      "stewart": 3019,
      "jimmy": 3020,
      "bie": 3021,
      "betra": 3022,
      "claude": 3023,
      "believes": 3024,
      "tha": 3025,
      "dio": 3026,
      "forever": 3027,
      "someone": 3028,
      "fash": 3029,
      "sar": 3030,
      "weap": 3031,
      "glen": 3032,
      "running": 3033,
      "gordon": 3034,
      "machine": 3035,
      "freedom": 3036,
      "bow": 3037,
      "lesbian": 3038,
      "pping": 3039,
      "cry": 3040,
      "icks": 3041,
      "achi": 3042,
      "idence": 3043,
      "ability": 3044,
      "confront": 3045,
      "disappear": 3046,
      "phone": 3047,
      "situation": 3048,
      "abandoned": 3049,
      "competition": 3050,
      "pper": 3051,
      "eli": 3052,
      "marc": 3053,
      "cooper": 3054,
      "caly": 3055,
      "treasure": 3056,
      "ride": 3057,
      "roger": 3058,
      "fully": 3059,
      "slow": 3060,
      "secur": 3061,
      "abo": 3062,
      "undercover": 3063,
      "julia": 3064,
      "faces": 3065,
      "isol": 3066,
      "verse": 3067,
      "ended": 3068,
      "suffer": 3069,
      "blan": 3070,
      "stolen": 3071,
      "fashion": 3072,
      "isab": 3073,
      "umi": 3074,
      "extra": 3075,
      "guil": 3076,
      "auto": 3077,
      "kan": 3078,
      "rene": 3079,
      "tery": 3080,
      "conflict": 3081,
      "lake": 3082,
      "exam": 3083,
      "understand": 3084,
      "antonio": 3085,
      "isher": 3086,
      "ata": 3087,
      "anderson": 3088,
      "immig": 3089,
      "emp": 3090,
      "itted": 3091,
      "syl": 3092,
      "alexander": 3093,
      "looks": 3094,
      "service": 3095,
      "andra": 3096,
      "asks": 3097,
      "motor": 3098,
      "model": 3099,
      "diffic": 3100,
      "rell": 3101,
      "matic": 3102,
      "apocaly": 3103,
      "dal": 3104,
      "ners": 3105,
      "nak": 3106,
      "tains": 3107,
      "elect": 3108,
      "ivan": 3109,
      "lier": 3110,
      "shin": 3111,
      "mates": 3112,
      "happens": 3113,
      "labor": 3114,
      "fighter": 3115,
      "pack": 3116,
      "dow": 3117,
      "tran": 3118,
      "humor": 3119,
      "clark": 3120,
      "due": 3121,
      "oks": 3122,
      "albert": 3123,
      "kyo": 3124,
      "cused": 3125,
      "encounters": 3126,
      "camera": 3127,
      "ez": 3128,
      "fbi": 3129,
      "erotic": 3130,
      "quie": 3131,
      "gregor": 3132,
      "corpor": 3133,
      "flash": 3134,
      "divorce": 3135,
      "price": 3136,
      "olo": 3137,
      "jerry": 3138,
      "loyd": 3139,
      "16": 3140,
      "ering": 3141,
      "linda": 3142,
      "ologist": 3143,
      "widow": 3144,
      "university": 3145,
      "fact": 3146,
      "ius": 3147,
      "result": 3148,
      "chief": 3149,
      "ague": 3150,
      "subur": 3151,
      "clim": 3152,
      "anything": 3153,
      "system": 3154,
      "although": 3155,
      "photographer": 3156,
      "chell": 3157,
      "fra": 3158,
      "zen": 3159,
      "chic": 3160,
      "carl": 3161,
      "fortune": 3162,
      "larry": 3163,
      "accidentally": 3164,
      "bay": 3165,
      "hou": 3166,
      "manuel": 3167,
      "span": 3168,
      "jail": 3169,
      "medi": 3170,
      "football": 3171,
      "factory": 3172,
      "fas": 3173,
      "gree": 3174,
      "rural": 3175,
      "anders": 3176,
      "ille": 3177,
      "usion": 3178,
      "mexican": 3179,
      "17": 3180,
      "aud": 3181,
      "awa": 3182,
      "avo": 3183,
      "cath": 3184,
      "brought": 3185,
      "tragic": 3186,
      "tradition": 3187,
      "betray": 3188,
      "mul": 3189,
      "pun": 3190,
      "iti": 3191,
      "almost": 3192,
      "agers": 3193,
      "parker": 3194,
      "karl": 3195,
      "michelle": 3196,
      "ade": 3197,
      "inspi": 3198,
      "uno": 3199,
      "cont": 3200,
      "frances": 3201,
      "patric": 3202,
      "security": 3203,
      "hl": 3204,
      "hong": 3205,
      "ior": 3206,
      "itive": 3207,
      "oly": 3208,
      "lovers": 3209,
      "disco": 3210,
      "troubled": 3211,
      "baker": 3212,
      "execut": 3213,
      "gle": 3214,
      "els": 3215,
      "maid": 3216,
      "epic": 3217,
      "italy": 3218,
      "rin": 3219,
      "leo": 3220,
      "iction": 3221,
      "beck": 3222,
      "fied": 3223,
      "phys": 3224,
      "jackie": 3225,
      "twent": 3226,
      "pick": 3227,
      "inher": 3228,
      "ention": 3229,
      "version": 3230,
      "whole": 3231,
      "whit": 3232,
      "mitchell": 3233,
      "thinks": 3234,
      "intim": 3235,
      "keith": 3236,
      "rome": 3237,
      "oul": 3238,
      "diam": 3239,
      "marine": 3240,
      "hostage": 3241,
      "professional": 3242,
      "tragedy": 3243,
      "difficult": 3244,
      "cit": 3245,
      "dram": 3246,
      "dia": 3247,
      "ante": 3248,
      "ries": 3249,
      "iron": 3250,
      "ounds": 3251,
      "gore": 3252,
      "famil": 3253,
      "pain": 3254,
      "share": 3255,
      "hopes": 3256,
      "third": 3257,
      "outside": 3258,
      "11": 3259,
      "resist": 3260,
      "aret": 3261,
      "affe": 3262,
      "spend": 3263,
      "itting": 3264,
      "arr": 3265,
      "trail": 3266,
      "bride": 3267,
      "believe": 3268,
      "realize": 3269,
      "cen": 3270,
      "ices": 3271,
      "emily": 3272,
      "hara": 3273,
      "mix": 3274,
      "lonely": 3275,
      "investigate": 3276,
      "corruption": 3277,
      "restaurant": 3278,
      "bond": 3279,
      "else": 3280,
      "rod": 3281,
      "unlike": 3282,
      "angle": 3283,
      "broken": 3284,
      "office": 3285,
      "watch": 3286,
      "obsession": 3287,
      "gone": 3288,
      "spor": 3289,
      "grace": 3290,
      "claire": 3291,
      "natal": 3292,
      "santa": 3293,
      "nuclear": 3294,
      "aug": 3295,
      "pup": 3296,
      "wayne": 3297,
      "occup": 3298,
      "problem": 3299,
      "oliver": 3300,
      "hilar": 3301,
      "influ": 3302,
      "virginia": 3303,
      "rifying": 3304,
      "13": 3305,
      "cust": 3306,
      "remake": 3307,
      "tough": 3308,
      "terri": 3309,
      "conspir": 3310,
      "foster": 3311,
      "explos": 3312,
      "comedian": 3313,
      "gain": 3314,
      "rant": 3315,
      "reason": 3316,
      "amaz": 3317,
      "hair": 3318,
      "consid": 3319,
      "soci": 3320,
      "jewish": 3321,
      "employ": 3322,
      "ei": 3323,
      "oh": 3324,
      "wright": 3325,
      "isn": 3326,
      "intelli": 3327,
      "ctions": 3328,
      "jere": 3329,
      "creature": 3330,
      "number": 3331,
      "agre": 3332,
      "page": 3333,
      "offers": 3334,
      "underground": 3335,
      "sym": 3336,
      "terrorist": 3337,
      "scenes": 3338,
      "card": 3339,
      "coll": 3340,
      "nightmare": 3341,
      "seeks": 3342,
      "fairy": 3343,
      "large": 3344,
      "cinema": 3345,
      "award": 3346,
      "dir": 3347,
      "lion": 3348,
      "pes": 3349,
      "concert": 3350,
      "sher": 3351,
      "remain": 3352,
      "alle": 3353,
      "ician": 3354,
      "chall": 3355,
      "moving": 3356,
      "brook": 3357,
      "nin": 3358,
      "ots": 3359,
      "aries": 3360,
      "ands": 3361,
      "means": 3362,
      "emer": 3363,
      "helps": 3364,
      "shir": 3365,
      "burn": 3366,
      "witness": 3367,
      "producer": 3368,
      "beginning": 3369,
      "bid": 3370,
      "ging": 3371,
      "ilian": 3372,
      "support": 3373,
      "wonder": 3374,
      "quiet": 3375,
      "manager": 3376,
      "atest": 3377,
      "sues": 3378,
      "valer": 3379,
      "sense": 3380,
      "philli": 3381,
      "lynn": 3382,
      "escapes": 3383,
      "challeng": 3384,
      "cand": 3385,
      "date": 3386,
      "kon": 3387,
      "sof": 3388,
      "health": 3389,
      "orious": 3390,
      "project": 3391,
      "months": 3392,
      "colon": 3393,
      "innocent": 3394,
      "rou": 3395,
      "illegal": 3396,
      "amar": 3397,
      "peri": 3398,
      "greatest": 3399,
      "torn": 3400,
      "games": 3401,
      "jeremy": 3402,
      "fon": 3403,
      "ras": 3404,
      "ora": 3405,
      "tax": 3406,
      "ody": 3407,
      "match": 3408,
      "played": 3409,
      "craig": 3410,
      "kidnapped": 3411,
      "important": 3412,
      "mult": 3413,
      "reck": 3414,
      "aron": 3415,
      "resh": 3416,
      "roc": 3417,
      "loses": 3418,
      "hired": 3419,
      "finding": 3420,
      "suspic": 3421,
      "dum": 3422,
      "ener": 3423,
      "soviet": 3424,
      "process": 3425,
      "rict": 3426,
      "player": 3427,
      "tommy": 3428,
      "entertain": 3429,
      "ads": 3430,
      "swed": 3431,
      "theat": 3432,
      "paint": 3433,
      "audi": 3434,
      "fernand": 3435,
      "jake": 3436,
      "domin": 3437,
      "increas": 3438,
      "growing": 3439,
      "families": 3440,
      "ried": 3441,
      "actually": 3442,
      "opera": 3443,
      "african": 3444,
      "vietnam": 3445,
      "av": 3446,
      "aire": 3447,
      "robot": 3448,
      "chiat": 3449,
      "mum": 3450,
      "pson": 3451,
      "punk": 3452,
      "psychiat": 3453,
      "homo": 3454,
      "ruthless": 3455,
      "bia": 3456,
      "unknown": 3457,
      "luke": 3458,
      "speak": 3459,
      "unfortun": 3460,
      "fron": 3461,
      "dystop": 3462,
      "astr": 3463,
      "ril": 3464,
      "ats": 3465,
      "pects": 3466,
      "wilder": 3467,
      "jamie": 3468,
      "bart": 3469,
      "ova": 3470,
      "oser": 3471,
      "asion": 3472,
      "depart": 3473,
      "coast": 3474,
      "joins": 3475,
      "emma": 3476,
      "serious": 3477,
      "meeting": 3478,
      "sul": 3479,
      "ceed": 3480,
      "prote": 3481,
      "program": 3482,
      "greg": 3483,
      "surreal": 3484,
      "command": 3485,
      "estate": 3486,
      "urai": 3487,
      "reveal": 3488,
      "jungle": 3489,
      "nazis": 3490,
      "cous": 3491,
      "hans": 3492,
      "scar": 3493,
      "wang": 3494,
      "deca": 3495,
      "essa": 3496,
      "richar": 3497,
      "seemingly": 3498,
      "became": 3499,
      "recently": 3500,
      "crow": 3501,
      "sound": 3502,
      "accused": 3503,
      "extr": 3504,
      "leslie": 3505,
      "murderer": 3506,
      "refuge": 3507,
      "uct": 3508,
      "aring": 3509,
      "accept": 3510,
      "tired": 3511,
      "training": 3512,
      "calls": 3513,
      "francisco": 3514,
      "sisters": 3515,
      "sig": 3516,
      "lotte": 3517,
      "pector": 3518,
      "berlin": 3519,
      "filmed": 3520,
      "murphy": 3521,
      "cannot": 3522,
      "crazy": 3523,
      "ralph": 3524,
      "feels": 3525,
      "explor": 3526,
      "inspired": 3527,
      "wind": 3528,
      "quar": 3529,
      "carry": 3530,
      "brain": 3531,
      "politics": 3532,
      "portrait": 3533,
      "acade": 3534,
      "respect": 3535,
      "lav": 3536,
      "horri": 3537,
      "sequences": 3538,
      "torture": 3539,
      "ires": 3540,
      "heist": 3541,
      "recover": 3542,
      "elder": 3543,
      "constant": 3544,
      "aching": 3545,
      "dancer": 3546,
      "starring": 3547,
      "border": 3548,
      "pit": 3549,
      "acts": 3550,
      "myth": 3551,
      "aken": 3552,
      "ellen": 3553,
      "belo": 3554,
      "superhero": 3555,
      "drawn": 3556,
      "veteran": 3557,
      "biz": 3558,
      "hatt": 3559,
      "lane": 3560,
      "enced": 3561,
      "disaster": 3562,
      "psycho": 3563,
      "breaks": 3564,
      "30": 3565,
      "cence": 3566,
      "commit": 3567,
      "southern": 3568,
      "telling": 3569,
      "production": 3570,
      "invasion": 3571,
      "jacques": 3572,
      "bound": 3573,
      "lloyd": 3574,
      "aro": 3575,
      "thought": 3576,
      "lia": 3577,
      "doing": 3578,
      "app": 3579,
      "shad": 3580,
      "crit": 3581,
      "decis": 3582,
      "weekend": 3583,
      "hugh": 3584,
      "kong": 3585,
      "rum": 3586,
      "aces": 3587,
      "aper": 3588,
      "should": 3589,
      "reluct": 3590,
      "valent": 3591,
      "intro": 3592,
      "kenn": 3593,
      "cycle": 3594,
      "adapt": 3595,
      "period": 3596,
      "dim": 3597,
      "ika": 3598,
      "wong": 3599,
      "opath": 3600,
      "dancing": 3601,
      "morning": 3602,
      "clau": 3603,
      "operation": 3604,
      "campbell": 3605,
      "jacob": 3606,
      "jesse": 3607,
      "hours": 3608,
      "lars": 3609,
      "spl": 3610,
      "trust": 3611,
      "kingdom": 3612,
      "washing": 3613,
      "idea": 3614,
      "louise": 3615,
      "conspiracy": 3616,
      "beloved": 3617,
      "pian": 3618,
      "omi": 3619,
      "trial": 3620,
      "talking": 3621,
      "position": 3622,
      "craft": 3623,
      "unique": 3624,
      "angela": 3625,
      "bridge": 3626,
      "patricia": 3627,
      "cass": 3628,
      "dur": 3629,
      "lay": 3630,
      "tel": 3631,
      "arre": 3632,
      "market": 3633,
      "murray": 3634,
      "gerard": 3635,
      "talk": 3636,
      "criminals": 3637,
      "think": 3638,
      "narr": 3639,
      "memories": 3640,
      "victims": 3641,
      "ultimately": 3642,
      "existence": 3643,
      "bou": 3644,
      "wise": 3645,
      "gence": 3646,
      "cook": 3647,
      "sales": 3648,
      "smug": 3649,
      "simple": 3650,
      "guest": 3651,
      "religious": 3652,
      "nurse": 3653,
      "karen": 3654,
      "mack": 3655,
      "tz": 3656,
      "vas": 3657,
      "already": 3658,
      "ults": 3659,
      "newly": 3660,
      "notorious": 3661,
      "raymond": 3662,
      "breaking": 3663,
      "capture": 3664,
      "obsessed": 3665,
      "andro": 3666,
      "educ": 3667,
      "liber": 3668,
      "convent": 3669,
      "istan": 3670,
      "opport": 3671,
      "pot": 3672,
      "gerald": 3673,
      "vast": 3674,
      "kennedy": 3675,
      "ible": 3676,
      "twin": 3677,
      "ashes": 3678,
      "favor": 3679,
      "compan": 3680,
      "engine": 3681,
      "letter": 3682,
      "chicago": 3683,
      "reluctant": 3684,
      "bag": 3685,
      "kit": 3686,
      "movies": 3687,
      "abuse": 3688,
      "centric": 3689,
      "handsome": 3690,
      "dealer": 3691,
      "flow": 3692,
      "gress": 3693,
      "knight": 3694,
      "inform": 3695,
      "research": 3696,
      "beha": 3697,
      "mansion": 3698,
      "tten": 3699,
      "judge": 3700,
      "loyal": 3701,
      "hilarious": 3702,
      "opportun": 3703,
      "dd": 3704,
      "equ": 3705,
      "terry": 3706,
      "aya": 3707,
      "carter": 3708,
      "bai": 3709,
      "triangle": 3710,
      "desire": 3711,
      "lawrence": 3712,
      "experiences": 3713,
      "birthday": 3714,
      "agen": 3715,
      "aaron": 3716,
      "issa": 3717,
      "geon": 3718,
      "usual": 3719,
      "pract": 3720,
      "surround": 3721,
      "gray": 3722,
      "grave": 3723,
      "braz": 3724,
      "ivia": 3725,
      "hone": 3726,
      "illness": 3727,
      "iger": 3728,
      "saw": 3729,
      "charlotte": 3730,
      "voice": 3731,
      "truck": 3732,
      "distur": 3733,
      "courage": 3734,
      "complicated": 3735,
      "industry": 3736,
      "wee": 3737,
      "create": 3738,
      "certain": 3739,
      "aleks": 3740,
      "chaos": 3741,
      "businessman": 3742,
      "rein": 3743,
      "setting": 3744,
      "amed": 3745,
      "common": 3746,
      "dave": 3747,
      "bast": 3748,
      "sibil": 3749,
      "buck": 3750,
      "funeral": 3751,
      "russia": 3752,
      "explores": 3753,
      "corrupt": 3754,
      "fro": 3755,
      "nell": 3756,
      "wick": 3757,
      "ators": 3758,
      "often": 3759,
      "ades": 3760,
      "rather": 3761,
      "idel": 3762,
      "spring": 3763,
      "fights": 3764,
      "graham": 3765,
      "refuses": 3766,
      "flashback": 3767,
      "chant": 3768,
      "neth": 3769,
      "ulation": 3770,
      "cole": 3771,
      "warren": 3772,
      "graph": 3773,
      "drive": 3774,
      "heads": 3775,
      "eccentric": 3776,
      "responsible": 3777,
      "cos": 3778,
      "mous": 3779,
      "nine": 3780,
      "uke": 3781,
      "raj": 3782,
      "joel": 3783,
      "aku": 3784,
      "inspector": 3785,
      "clean": 3786,
      "wanted": 3787,
      "jealousy": 3788,
      "twenty": 3789,
      "unlikely": 3790,
      "ott": 3791,
      "immedi": 3792,
      "pool": 3793,
      "spar": 3794,
      "margaret": 3795,
      "sends": 3796,
      "leigh": 3797,
      "tokyo": 3798,
      "rial": 3799,
      "finan": 3800,
      "giving": 3801,
      "henri": 3802,
      "royal": 3803,
      "aunt": 3804,
      "eight": 3805,
      "liter": 3806,
      "diane": 3807,
      "ptic": 3808,
      "christine": 3809,
      "animated": 3810,
      "voy": 3811,
      "puts": 3812,
      "shark": 3813,
      "grows": 3814,
      "fit": 3815,
      "fisher": 3816,
      "resident": 3817,
      "olivia": 3818,
      "nest": 3819,
      "cock": 3820,
      "sav": 3821,
      "discovered": 3822,
      "chair": 3823,
      "prisoner": 3824,
      "target": 3825,
      "behavi": 3826,
      "lat": 3827,
      "aton": 3828,
      "urban": 3829,
      "newsp": 3830,
      "samurai": 3831,
      "francois": 3832,
      "avoid": 3833,
      "hust": 3834,
      "tsu": 3835,
      "filled": 3836,
      "crack": 3837,
      "prevent": 3838,
      "discovery": 3839,
      "oil": 3840,
      "pred": 3841,
      "wend": 3842,
      "ori": 3843,
      "olic": 3844,
      "imo": 3845,
      "quite": 3846,
      "neighborhood": 3847,
      "techn": 3848,
      "performance": 3849,
      "increasingly": 3850,
      "bition": 3851,
      "kung": 3852,
      "vlad": 3853,
      "ising": 3854,
      "season": 3855,
      "elo": 3856,
      "coach": 3857,
      "area": 3858,
      "guar": 3859,
      "complet": 3860,
      "causes": 3861,
      "estrang": 3862,
      "fla": 3863,
      "hr": 3864,
      "patt": 3865,
      "ala": 3866,
      "aspir": 3867,
      "contem": 3868,
      "wheel": 3869,
      "cially": 3870,
      "fame": 3871,
      "preg": 3872,
      "magical": 3873,
      "andrea": 3874,
      "sweet": 3875,
      "suffering": 3876,
      "bach": 3877,
      "came": 3878,
      "easy": 3879,
      "ose": 3880,
      "oce": 3881,
      "alo": 3882,
      "amanda": 3883,
      "raid": 3884,
      "web": 3885,
      "pover": 3886,
      "strand": 3887,
      "izing": 3888,
      "official": 3889,
      "bernard": 3890,
      "kis": 3891,
      "reno": 3892,
      "recru": 3893,
      "andr": 3894,
      "rio": 3895,
      "hiro": 3896,
      "poet": 3897,
      "estranged": 3898,
      "cash": 3899,
      "vs": 3900,
      "envir": 3901,
      "today": 3902,
      "thus": 3903,
      "asher": 3904,
      "carlo": 3905,
      "colin": 3906,
      "anyone": 3907,
      "syn": 3908,
      "garcia": 3909,
      "media": 3910,
      "airplane": 3911,
      "grandfather": 3912,
      "feelings": 3913,
      "record": 3914,
      "possession": 3915,
      "bizarre": 3916,
      "bent": 3917,
      "sie": 3918,
      "thel": 3919,
      "omic": 3920,
      "rier": 3921,
      "rare": 3922,
      "buil": 3923,
      "warrior": 3924,
      "spanish": 3925,
      "kh": 3926,
      "pra": 3927,
      "held": 3928,
      "iny": 3929,
      "incident": 3930,
      "theater": 3931,
      "eline": 3932,
      "mickey": 3933,
      "morris": 3934,
      "farmer": 3935,
      "gambling": 3936,
      "wido": 3937,
      "reveals": 3938,
      "slowly": 3939,
      "dres": 3940,
      "ply": 3941,
      "wes": 3942,
      "instit": 3943,
      "ones": 3944,
      "contest": 3945,
      "actions": 3946,
      "attention": 3947,
      "miles": 3948,
      "gift": 3949,
      "losing": 3950,
      "changed": 3951,
      "meaning": 3952,
      "moment": 3953,
      "flight": 3954,
      "isra": 3955,
      "oscar": 3956,
      "illing": 3957,
      "ull": 3958,
      "deser": 3959,
      "flor": 3960,
      "workers": 3961,
      "struct": 3962,
      "generation": 3963,
      "august": 3964,
      "washington": 3965,
      "gs": 3966,
      "vors": 3967,
      "arist": 3968,
      "lear": 3969,
      "adams": 3970,
      "guys": 3971,
      "mason": 3972,
      "jordan": 3973,
      "alcoholic": 3974,
      "nicholas": 3975,
      "tree": 3976,
      "unable": 3977,
      "bry": 3978,
      "created": 3979,
      "shan": 3980,
      "kapoor": 3981,
      "burg": 3982,
      "happen": 3983,
      "happened": 3984,
      "maggie": 3985,
      "twist": 3986,
      "captured": 3987,
      "prostitution": 3988,
      "circus": 3989,
      "shirley": 3990,
      "dystopia": 3991,
      "academy": 3992,
      "hack": 3993,
      "inha": 3994,
      "chap": 3995,
      "marcel": 3996,
      "ustr": 3997,
      "shy": 3998,
      "ashley": 3999,
      "seeking": 4000,
      "happiness": 4001,
      "curse": 4002,
      "thompson": 4003,
      "straight": 4004,
      "complete": 4005,
      "unfortunately": 4006,
      "environ": 4007,
      "econ": 4008,
      "nad": 4009,
      "marian": 4010,
      "aga": 4011,
      "ako": 4012,
      "jewel": 4013,
      "walker": 4014,
      "funny": 4015,
      "ultimate": 4016,
      "historical": 4017,
      "stro": 4018,
      "sem": 4019,
      "poses": 4020,
      "spends": 4021,
      "mortal": 4022,
      "lines": 4023,
      "nicole": 4024,
      "drop": 4025,
      "flying": 4026,
      "sophie": 4027,
      "glenn": 4028,
      "pregnancy": 4029,
      "icts": 4030,
      "destruction": 4031,
      "una": 4032,
      "cops": 4033,
      "bobby": 4034,
      "diamond": 4035,
      "introdu": 4036,
      "adver": 4037,
      "pear": 4038,
      "daily": 4039,
      "folk": 4040,
      "bald": 4041,
      "develops": 4042,
      "nelson": 4043,
      "muse": 4044,
      "zed": 4045,
      "jects": 4046,
      "mater": 4047,
      "grandmother": 4048,
      "occur": 4049,
      "gabriel": 4050,
      "gul": 4051,
      "lg": 4052,
      "lis": 4053,
      "nina": 4054,
      "hale": 4055,
      "quent": 4056,
      "pretty": 4057,
      "pressed": 4058,
      "normal": 4059,
      "medical": 4060,
      "tension": 4061,
      "silver": 4062,
      "golden": 4063,
      "1970s": 4064,
      "50": 4065,
      "pam": 4066,
      "stat": 4067,
      "sec": 4068,
      "espe": 4069,
      "neil": 4070,
      "spain": 4071,
      "wski": 4072,
      "loose": 4073,
      "threatens": 4074,
      "assassination": 4075,
      "robinson": 4076,
      "complex": 4077,
      "lgbt": 4078,
      "gig": 4079,
      "hoff": 4080,
      "kr": 4081,
      "sens": 4082,
      "yl": 4083,
      "oud": 4084,
      "lose": 4085,
      "consequences": 4086,
      "ops": 4087,
      "clay": 4088,
      "vious": 4089,
      "central": 4090,
      "luis": 4091,
      "holmes": 4092,
      "daughters": 4093,
      "politician": 4094,
      "continues": 4095,
      "hurt": 4096,
      "stival": 4097,
      "citiz": 4098,
      "cil": 4099,
      "fresh": 4100,
      "kick": 4101,
      "pag": 4102,
      "inspir": 4103,
      "sta": 4104,
      "icate": 4105,
      "ador": 4106,
      "tales": 4107,
      "vik": 4108,
      "color": 4109,
      "center": 4110,
      "condition": 4111,
      "cameron": 4112,
      "receives": 4113,
      "marshall": 4114,
      "newspaper": 4115,
      "alli": 4116,
      "festival": 4117,
      "suit": 4118,
      "traffic": 4119,
      "adaptation": 4120,
      "stum": 4121,
      "imir": 4122,
      "cruel": 4123,
      "justin": 4124,
      "features": 4125,
      "nearly": 4126,
      "picture": 4127,
      "especially": 4128,
      "flee": 4129,
      "gall": 4130,
      "rud": 4131,
      "wins": 4132,
      "zie": 4133,
      "todd": 4134,
      "loving": 4135,
      "exact": 4136,
      "humans": 4137,
      "traveling": 4138,
      "featuring": 4139,
      "stuart": 4140,
      "psychopath": 4141,
      "ease": 4142,
      "motorcycle": 4143,
      "intelligence": 4144,
      "agrees": 4145,
      "kni": 4146,
      "leng": 4147,
      "pion": 4148,
      "wu": 4149,
      "ghan": 4150,
      "odd": 4151,
      "navy": 4152,
      "kenneth": 4153,
      "arrival": 4154,
      "hunting": 4155,
      "employe": 4156,
      "global": 4157,
      "executive": 4158,
      "shadow": 4159,
      "enlist": 4160,
      "took": 4161,
      "sail": 4162,
      "prep": 4163,
      "irene": 4164,
      "samuel": 4165,
      "individ": 4166,
      "honor": 4167,
      "homosexuality": 4168,
      "gos": 4169,
      "iko": 4170,
      "mck": 4171,
      "sally": 4172,
      "hem": 4173,
      "thous": 4174,
      "terrifying": 4175,
      "manages": 4176,
      "abdu": 4177,
      "tail": 4178,
      "perry": 4179,
      "lette": 4180,
      "countryside": 4181,
      "bird": 4182,
      "mistaken": 4183,
      "becca": 4184,
      "empire": 4185,
      "14": 4186,
      "honey": 4187,
      "sca": 4188,
      "sak": 4189,
      "encer": 4190,
      "ashi": 4191,
      "selling": 4192,
      "singing": 4193,
      "aware": 4194,
      "psychological": 4195,
      "grown": 4196,
      "disappearance": 4197,
      "isolated": 4198,
      "catholic": 4199,
      "intimate": 4200,
      "sports": 4201,
      "hin": 4202,
      "june": 4203,
      "yam": 4204,
      "rebecca": 4205,
      "dale": 4206,
      "emil": 4207,
      "harvey": 4208,
      "visits": 4209,
      "juan": 4210,
      "patri": 4211,
      "therap": 4212,
      "sten": 4213,
      "acle": 4214,
      "ided": 4215,
      "whether": 4216,
      "berry": 4217,
      "bennett": 4218,
      "seek": 4219,
      "catch": 4220,
      "addiction": 4221,
      "swim": 4222,
      "places": 4223,
      "arrested": 4224,
      "assistant": 4225,
      "boun": 4226,
      "send": 4227,
      "yoshi": 4228,
      "ero": 4229,
      "iser": 4230,
      "results": 4231,
      "worse": 4232,
      "berto": 4233,
      "aff": 4234,
      "patient": 4235,
      "biggest": 4236,
      "dorothy": 4237,
      "release": 4238,
      "infidel": 4239,
      "piece": 4240,
      "shooting": 4241,
      "individual": 4242,
      "ib": 4243,
      "jar": 4244,
      "pig": 4245,
      "wrest": 4246,
      "anni": 4247,
      "caine": 4248,
      "vet": 4249,
      "mani": 4250,
      "proper": 4251,
      "clan": 4252,
      "buddy": 4253,
      "stanley": 4254,
      "champion": 4255,
      "cousin": 4256,
      "gia": 4257,
      "kle": 4258,
      "lund": 4259,
      "aded": 4260,
      "crush": 4261,
      "nightclub": 4262,
      "waiting": 4263,
      "underworld": 4264,
      "rules": 4265,
      "financial": 4266,
      "jum": 4267,
      "nun": 4268,
      "pel": 4269,
      "sour": 4270,
      "wen": 4271,
      "itself": 4272,
      "thie": 4273,
      "mains": 4274,
      "insur": 4275,
      "attle": 4276,
      "pret": 4277,
      "buy": 4278,
      "banks": 4279,
      "annie": 4280,
      "heaven": 4281,
      "jeffrey": 4282,
      "boarding": 4283,
      "jesus": 4284,
      "assigned": 4285,
      "thrown": 4286,
      "gregory": 4287,
      "department": 4288,
      "ocean": 4289,
      "dust": 4290,
      "mouse": 4291,
      "sure": 4292,
      "beast": 4293,
      "utes": 4294,
      "hiding": 4295,
      "mars": 4296,
      "ideal": 4297,
      "searching": 4298,
      "involving": 4299,
      "slasher": 4300,
      "deliver": 4301,
      "dramatic": 4302,
      "dating": 4303,
      "gol": 4304,
      "jas": 4305,
      "kiss": 4306,
      "vice": 4307,
      "reunion": 4308,
      "leen": 4309,
      "depression": 4310,
      "evol": 4311,
      "tural": 4312,
      "scand": 4313,
      "sinister": 4314,
      "hitman": 4315,
      "julian": 4316,
      "philippe": 4317,
      "reed": 4318,
      "ilton": 4319,
      "icted": 4320,
      "account": 4321,
      "hires": 4322,
      "pete": 4323,
      "laun": 4324,
      "expect": 4325,
      "pros": 4326,
      "luc": 4327,
      "luci": 4328,
      "virus": 4329,
      "heroes": 4330,
      "witnes": 4331,
      "changing": 4332,
      "latest": 4333,
      "audience": 4334,
      "opportunity": 4335,
      "lind": 4336,
      "remains": 4337,
      "asha": 4338,
      "lov": 4339,
      "upper": 4340,
      "brilli": 4341,
      "timothy": 4342,
      "minister": 4343,
      "design": 4344,
      "moral": 4345,
      "questions": 4346,
      "elliott": 4347,
      "australian": 4348,
      "collins": 4349,
      "pus": 4350,
      "inj": 4351,
      "amor": 4352,
      "eland": 4353,
      "chain": 4354,
      "cler": 4355,
      "block": 4356,
      "mountains": 4357,
      "creatures": 4358,
      "hannah": 4359,
      "elderly": 4360,
      "stranded": 4361,
      "ied": 4362,
      "arms": 4363,
      "osaur": 4364,
      "assa": 4365,
      "fix": 4366,
      "cheer": 4367,
      "sight": 4368,
      "blackmail": 4369,
      "arnold": 4370,
      "emotional": 4371,
      "broadway": 4372,
      "drinking": 4373,
      "langu": 4374,
      "education": 4375,
      "ambit": 4376,
      "ably": 4377,
      "ument": 4378,
      "spencer": 4379,
      "disease": 4380,
      "izes": 4381,
      "giu": 4382,
      "mistress": 4383,
      "mrs": 4384,
      "extraordinary": 4385,
      "resistance": 4386,
      "bastian": 4387,
      "ambitious": 4388,
      "tun": 4389,
      "ria": 4390,
      "trade": 4391,
      "turning": 4392,
      "willing": 4393,
      "charming": 4394,
      "jazz": 4395,
      "solve": 4396,
      "committed": 4397,
      "bush": 4398,
      "blake": 4399,
      "particular": 4400,
      "wilderness": 4401,
      "bath": 4402,
      "done": 4403,
      "rat": 4404,
      "skills": 4405,
      "yn": 4406,
      "anor": 4407,
      "illy": 4408,
      "enters": 4409,
      "advan": 4410,
      "lying": 4411,
      "lifestyle": 4412,
      "dana": 4413,
      "melan": 4414,
      "craw": 4415,
      "hallo": 4416,
      "quinn": 4417,
      "apocalyptic": 4418,
      "brilliant": 4419,
      "wreck": 4420,
      "oria": 4421,
      "deb": 4422,
      "maur": 4423,
      "johan": 4424,
      "evans": 4425,
      "evidence": 4426,
      "kawa": 4427,
      "charge": 4428,
      "humanity": 4429,
      "freder": 4430,
      "baseball": 4431,
      "retire": 4432,
      "fiancee": 4433,
      "infidelity": 4434,
      "git": 4435,
      "gger": 4436,
      "kam": 4437,
      "sli": 4438,
      "skin": 4439,
      "ties": 4440,
      "went": 4441,
      "wound": 4442,
      "reach": 4443,
      "rescu": 4444,
      "bee": 4445,
      "19th": 4446,
      "sometimes": 4447,
      "holds": 4448,
      "archite": 4449,
      "hitch": 4450,
      "nicolas": 4451,
      "claimed": 4452,
      "keeper": 4453,
      "harrison": 4454,
      "immediately": 4455,
      "technology": 4456,
      "ghe": 4457,
      "gust": 4458,
      "mou": 4459,
      "stev": 4460,
      "ctic": 4461,
      "soo": 4462,
      "sue": 4463,
      "lucas": 4464,
      "writing": 4465,
      "policeman": 4466,
      "secretly": 4467,
      "anned": 4468,
      "capital": 4469,
      "survivors": 4470,
      "further": 4471,
      "false": 4472,
      "australia": 4473,
      "korean": 4474,
      "betrayal": 4475,
      "theatre": 4476,
      "vladimir": 4477,
      "wag": 4478,
      "reco": 4479,
      "elena": 4480,
      "loved": 4481,
      "raised": 4482,
      "makers": 4483,
      "diana": 4484,
      "mario": 4485,
      "animals": 4486,
      "lessly": 4487,
      "norman": 4488,
      "reynol": 4489,
      "movement": 4490,
      "escaped": 4491,
      "chronicles": 4492,
      "weapon": 4493,
      "immigrant": 4494,
      "aim": 4495,
      "scr": 4496,
      "tab": 4497,
      "zan": 4498,
      "intri": 4499,
      "olin": 4500,
      "imprison": 4501,
      "aftercreditsstinger": 4502,
      "epis": 4503,
      "burt": 4504,
      "prisoners": 4505,
      "collect": 4506,
      "function": 4507,
      "atory": 4508,
      "satire": 4509,
      "crook": 4510,
      "lucky": 4511,
      "olym": 4512,
      "astron": 4513,
      "reynolds": 4514,
      "3d": 4515,
      "cart": 4516,
      "gus": 4517,
      "yard": 4518,
      "ledge": 4519,
      "attor": 4520,
      "cancer": 4521,
      "guer": 4522,
      "lucy": 4523,
      "counter": 4524,
      "vicious": 4525,
      "guns": 4526,
      "bloody": 4527,
      "sorcer": 4528,
      "rivalry": 4529,
      "kirk": 4530,
      "blow": 4531,
      "sebastian": 4532,
      "amber": 4533,
      "irish": 4534,
      "manip": 4535,
      "outlaw": 4536,
      "cker": 4537,
      "kova": 4538,
      "partners": 4539,
      "killers": 4540,
      "interview": 4541,
      "1960s": 4542,
      "natalie": 4543,
      "attorney": 4544,
      "fug": 4545,
      "hug": 4546,
      "kent": 4547,
      "kie": 4548,
      "nas": 4549,
      "sear": 4550,
      "seas": 4551,
      "icy": 4552,
      "genius": 4553,
      "potent": 4554,
      "carlos": 4555,
      "duke": 4556,
      "gaz": 4557,
      "curtis": 4558,
      "heather": 4559,
      "studio": 4560,
      "custom": 4561,
      "material": 4562,
      "halloween": 4563,
      "ech": 4564,
      "hut": 4565,
      "lust": 4566,
      "rout": 4567,
      "swan": 4568,
      "retired": 4569,
      "debor": 4570,
      "rodri": 4571,
      "unite": 4572,
      "fried": 4573,
      "bruno": 4574,
      "fif": 4575,
      "actors": 4576,
      "192": 4577,
      "offer": 4578,
      "dylan": 4579,
      "hometown": 4580,
      "throughout": 4581,
      "cuses": 4582,
      "keeps": 4583,
      "aspiring": 4584,
      "iro": 4585,
      "zel": 4586,
      "stall": 4587,
      "armed": 4588,
      "throw": 4589,
      "porary": 4590,
      "study": 4591,
      "bitter": 4592,
      "experimental": 4593,
      "incredi": 4594,
      "garden": 4595,
      "religion": 4596,
      "extreme": 4597,
      "arrang": 4598,
      "psychiatrist": 4599,
      "mand": 4600,
      "nom": 4601,
      "rita": 4602,
      "witt": 4603,
      "rett": 4604,
      "enne": 4605,
      "rights": 4606,
      "chin": 4607,
      "chos": 4608,
      "unra": 4609,
      "lived": 4610,
      "rail": 4611,
      "tagon": 4612,
      "rising": 4613,
      "mons": 4614,
      "valley": 4615,
      "overcome": 4616,
      "wave": 4617,
      "teenagers": 4618,
      "campa": 4619,
      "strangers": 4620,
      "rogers": 4621,
      "scheme": 4622,
      "historic": 4623,
      "molly": 4624,
      "contact": 4625,
      "ffin": 4626,
      "remember": 4627,
      "onto": 4628,
      "cave": 4629,
      "debt": 4630,
      "cot": 4631,
      "dawn": 4632,
      "provid": 4633,
      "steps": 4634,
      "answer": 4635,
      "shaw": 4636,
      "hamilton": 4637,
      "driving": 4638,
      "scot": 4639,
      "yuki": 4640,
      "universe": 4641,
      "arrive": 4642,
      "basket": 4643,
      "cultural": 4644,
      "oke": 4645,
      "som": 4646,
      "sive": 4647,
      "ught": 4648,
      "yi": 4649,
      "ere": 4650,
      "thal": 4651,
      "challen": 4652,
      "march": 4653,
      "cool": 4654,
      "laugh": 4655,
      "ugs": 4656,
      "wide": 4657,
      "intent": 4658,
      "vanessa": 4659,
      "iii": 4660,
      "imagin": 4661,
      "taxi": 4662,
      "behavior": 4663,
      "architect": 4664,
      "rious": 4665,
      "beau": 4666,
      "betty": 4667,
      "combat": 4668,
      "forbid": 4669,
      "oppos": 4670,
      "exped": 4671,
      "butler": 4672,
      "oted": 4673,
      "vince": 4674,
      "heavy": 4675,
      "victoria": 4676,
      "boxer": 4677,
      "cof": 4678,
      "dict": 4679,
      "xon": 4680,
      "initi": 4681,
      "arab": 4682,
      "elisa": 4683,
      "doo": 4684,
      "ement": 4685,
      "parad": 4686,
      "gather": 4687,
      "spect": 4688,
      "evening": 4689,
      "racial": 4690,
      "hoping": 4691,
      "campaign": 4692,
      "bass": 4693,
      "fay": 4694,
      "fill": 4695,
      "mour": 4696,
      "scri": 4697,
      "ishi": 4698,
      "towards": 4699,
      "icon": 4700,
      "edge": 4701,
      "unning": 4702,
      "neo": 4703,
      "hire": 4704,
      "wned": 4705,
      "planned": 4706,
      "bron": 4707,
      "elling": 4708,
      "crimes": 4709,
      "tribe": 4710,
      "asylum": 4711,
      "seeing": 4712,
      "effort": 4713,
      "owen": 4714,
      "strike": 4715,
      "faced": 4716,
      "desperately": 4717,
      "greek": 4718,
      "oz": 4719,
      "ux": 4720,
      "worst": 4721,
      "elite": 4722,
      "liam": 4723,
      "livan": 4724,
      "focus": 4725,
      "colm": 4726,
      "holm": 4727,
      "marries": 4728,
      "trevor": 4729,
      "walk": 4730,
      "antha": 4731,
      "explosion": 4732,
      "decision": 4733,
      "sick": 4734,
      "tle": 4735,
      "uro": 4736,
      "zach": 4737,
      "atives": 4738,
      "uss": 4739,
      "manhatt": 4740,
      "fears": 4741,
      "gotten": 4742,
      "poe": 4743,
      "diego": 4744,
      "includes": 4745,
      "baldwin": 4746,
      "expedition": 4747,
      "manhattan": 4748,
      "kra": 4749,
      "heim": 4750,
      "pez": 4751,
      "tracy": 4752,
      "expla": 4753,
      "fail": 4754,
      "failed": 4755,
      "mercen": 4756,
      "presents": 4757,
      "boris": 4758,
      "brien": 4759,
      "villain": 4760,
      "appeared": 4761,
      "virt": 4762,
      "zzi": 4763,
      "soccer": 4764,
      "pursuit": 4765,
      "embark": 4766,
      "isabelle": 4767,
      "bjor": 4768,
      "task": 4769,
      "recon": 4770,
      "refer": 4771,
      "ential": 4772,
      "unit": 4773,
      "herbert": 4774,
      "vera": 4775,
      "peters": 4776,
      "sug": 4777,
      "bler": 4778,
      "baron": 4779,
      "wake": 4780,
      "northern": 4781,
      "samantha": 4782,
      "estab": 4783,
      "expert": 4784,
      "andrews": 4785,
      "produced": 4786,
      "spoof": 4787,
      "celebrity": 4788,
      "dirty": 4789,
      "brooklyn": 4790,
      "richardson": 4791,
      "poverty": 4792,
      "institution": 4793,
      "learning": 4794,
      "25": 4795,
      "bare": 4796,
      "jur": 4797,
      "mia": 4798,
      "tomas": 4799,
      "asked": 4800,
      "debut": 4801,
      "contro": 4802,
      "proves": 4803,
      "ireland": 4804,
      "fictional": 4805,
      "bright": 4806,
      "yuri": 4807,
      "dealing": 4808,
      "circum": 4809,
      "innocence": 4810,
      "korea": 4811,
      "favorite": 4812,
      "fare": 4813,
      "nate": 4814,
      "nathan": 4815,
      "uer": 4816,
      "thes": 4817,
      "acqu": 4818,
      "idy": 4819,
      "tai": 4820,
      "bott": 4821,
      "upside": 4822,
      "iana": 4823,
      "protest": 4824,
      "attend": 4825,
      "grey": 4826,
      "temple": 4827,
      "secretary": 4828,
      "survivor": 4829,
      "ranch": 4830,
      "awak": 4831,
      "boxing": 4832,
      "placed": 4833,
      "moscow": 4834,
      "weeks": 4835,
      "aleksandr": 4836,
      "completely": 4837,
      "unravel": 4838,
      "dill": 4839,
      "egy": 4840,
      "ode": 4841,
      "sant": 4842,
      "lev": 4843,
      "resur": 4844,
      "elds": 4845,
      "befriends": 4846,
      "poison": 4847,
      "emper": 4848,
      "internet": 4849,
      "matter": 4850,
      "huge": 4851,
      "supposed": 4852,
      "rule": 4853,
      "communist": 4854,
      "inherit": 4855,
      "phillips": 4856,
      "honest": 4857,
      "museum": 4858,
      "thieves": 4859,
      "challenge": 4860,
      "hee": 4861,
      "resort": 4862,
      "unle": 4863,
      "veron": 4864,
      "noah": 4865,
      "confron": 4866,
      "agents": 4867,
      "emmanuel": 4868,
      "sexy": 4869,
      "belong": 4870,
      "ploitation": 4871,
      "vengeance": 4872,
      "satan": 4873,
      "claims": 4874,
      "songs": 4875,
      "bridges": 4876,
      "deborah": 4877,
      "gers": 4878,
      "asant": 4879,
      "terr": 4880,
      "clin": 4881,
      "blon": 4882,
      "brooks": 4883,
      "choice": 4884,
      "juana": 4885,
      "prize": 4886,
      "driven": 4887,
      "griff": 4888,
      "ao": 4889,
      "fell": 4890,
      "math": 4891,
      "stin": 4892,
      "defeat": 4893,
      "impossible": 4894,
      "nasty": 4895,
      "saint": 4896,
      "benjam": 4897,
      "claus": 4898,
      "suspects": 4899,
      "leaders": 4900,
      "current": 4901,
      "villa": 4902,
      "scientists": 4903,
      "laurence": 4904,
      "gradually": 4905,
      "attractive": 4906,
      "emperor": 4907,
      "gill": 4908,
      "ias": 4909,
      "kang": 4910,
      "vation": 4911,
      "xter": 4912,
      "requ": 4913,
      "unemploy": 4914,
      "appoint": 4915,
      "spin": 4916,
      "spent": 4917,
      "suff": 4918,
      "reng": 4919,
      "saving": 4920,
      "miche": 4921,
      "cyn": 4922,
      "madness": 4923,
      "district": 4924,
      "sandra": 4925,
      "austin": 4926,
      "confess": 4927,
      "squad": 4928,
      "language": 4929,
      "forbidden": 4930,
      "kos": 4931,
      "lack": 4932,
      "ref": 4933,
      "lett": 4934,
      "unusual": 4935,
      "hail": 4936,
      "derek": 4937,
      "cies": 4938,
      "protagon": 4939,
      "paula": 4940,
      "destiny": 4941,
      "rifice": 4942,
      "wyn": 4943,
      "millionaire": 4944,
      "sacrifice": 4945,
      "smoking": 4946,
      "hul": 4947,
      "sung": 4948,
      "enem": 4949,
      "edith": 4950,
      "dry": 4951,
      "manage": 4952,
      "fects": 4953,
      "ummer": 4954,
      "odds": 4955,
      "parano": 4956,
      "ensen": 4957,
      "engage": 4958,
      "prime": 4959,
      "organization": 4960,
      "embarks": 4961,
      "claudia": 4962,
      "40": 4963,
      "eating": 4964,
      "uma": 4965,
      "ache": 4966,
      "vegas": 4967,
      "uten": 4968,
      "metal": 4969,
      "code": 4970,
      "artists": 4971,
      "britt": 4972,
      "carmen": 4973,
      "canada": 4974,
      "descri": 4975,
      "gloria": 4976,
      "hua": 4977,
      "pati": 4978,
      "philos": 4979,
      "20th": 4980,
      "nearby": 4981,
      "guilt": 4982,
      "fernando": 4983,
      "decades": 4984,
      "controver": 4985,
      "',": 4986,
      "ium": 4987,
      "inner": 4988,
      "streng": 4989,
      "icia": 4990,
      "condu": 4991,
      "lesh": 4992,
      "ishing": 4993,
      "murderous": 4994,
      "dys": 4995,
      "everyday": 4996,
      "standing": 4997,
      "continue": 4998,
      "pull": 4999,
      "adultery": 5000,
      "sullivan": 5001,
      "astronaut": 5002,
      "basketball": 5003,
      "benjamin": 5004,
      "hears": 5005,
      "apparent": 5006,
      "earlier": 5007,
      "closer": 5008,
      "kings": 5009,
      "cheating": 5010,
      "hudson": 5011,
      "mask": 5012,
      "voc": 5013,
      "returning": 5014,
      "bull": 5015,
      "twins": 5016,
      "wallace": 5017,
      "gentle": 5018,
      "shelter": 5019,
      "enemies": 5020,
      "'.": 5021,
      "hits": 5022,
      "kris": 5023,
      "nag": 5024,
      "wwi": 5025,
      "toy": 5026,
      "plin": 5027,
      "insane": 5028,
      "disgu": 5029,
      "shooto": 5030,
      "highly": 5031,
      "dinosaur": 5032,
      "ghosts": 5033,
      "defend": 5034,
      "salesman": 5035,
      "shootout": 5036,
      "jill": 5037,
      "rough": 5038,
      "sir": 5039,
      "sna": 5040,
      "yama": 5041,
      "zar": 5042,
      "refle": 5043,
      "lets": 5044,
      "ati": 5045,
      "liu": 5046,
      "likes": 5047,
      "comb": 5048,
      "cepts": 5049,
      "magaz": 5050,
      "cox": 5051,
      "tribut": 5052,
      "kai": 5053,
      "buried": 5054,
      "homeless": 5055,
      "brief": 5056,
      "flat": 5057,
      "succeed": 5058,
      "dinner": 5059,
      "jenny": 5060,
      "freeman": 5061,
      "pirate": 5062,
      "ritual": 5063,
      "chuck": 5064,
      "agency": 5065,
      "pical": 5066,
      "sides": 5067,
      "zak": 5068,
      "heir": 5069,
      "league": 5070,
      "devast": 5071,
      "bean": 5072,
      "martha": 5073,
      "trick": 5074,
      "goth": 5075,
      "lux": 5076,
      "georges": 5077,
      "effect": 5078,
      "strip": 5079,
      "stances": 5080,
      "locked": 5081,
      "slave": 5082,
      "pacific": 5083,
      "waitress": 5084,
      "terrible": 5085,
      "establ": 5086,
      "egypt": 5087,
      "eth": 5088,
      "ske": 5089,
      "ols": 5090,
      "lights": 5091,
      "forts": 5092,
      "ulous": 5093,
      "weight": 5094,
      "risk": 5095,
      "desc": 5096,
      "fallen": 5097,
      "melo": 5098,
      "lynch": 5099,
      "threatened": 5100,
      "bringing": 5101,
      "european": 5102,
      "electric": 5103,
      "amarital": 5104,
      "extramarital": 5105,
      "sibility": 5106,
      "residents": 5107,
      "witnesses": 5108,
      "lun": 5109,
      "mim": 5110,
      "olph": 5111,
      "teams": 5112,
      "igner": 5113,
      "berger": 5114,
      "finn": 5115,
      "nibal": 5116,
      "discus": 5117,
      "said": 5118,
      "longer": 5119,
      "werewolf": 5120,
      "janet": 5121,
      "convinced": 5122,
      "fascin": 5123,
      "aristo": 5124,
      "maurice": 5125,
      "stevens": 5126,
      "avi": 5127,
      "kal": 5128,
      "smart": 5129,
      "images": 5130,
      "comfort": 5131,
      "rab": 5132,
      "doom": 5133,
      "byr": 5134,
      "connor": 5135,
      "disney": 5136,
      "borg": 5137,
      "thanks": 5138,
      "watson": 5139,
      "contract": 5140,
      "iraq": 5141,
      "length": 5142,
      "flesh": 5143,
      "infe": 5144,
      "theft": 5145,
      "lopez": 5146,
      "marco": 5147,
      "naive": 5148,
      "returned": 5149,
      "melissa": 5150,
      "subject": 5151,
      "mixed": 5152,
      "multip": 5153,
      "aled": 5154,
      "cabin": 5155,
      "ulated": 5156,
      "hima": 5157,
      "carto": 5158,
      "clusive": 5159,
      "creates": 5160,
      "franken": 5161,
      "singh": 5162,
      "walking": 5163,
      "aliens": 5164,
      "speed": 5165,
      "alexandra": 5166,
      "doug": 5167,
      "darkness": 5168,
      "spiritual": 5169,
      "attraction": 5170,
      "convince": 5171,
      "settle": 5172,
      "says": 5173,
      "surprise": 5174,
      "suburban": 5175,
      "ninja": 5176,
      "scotland": 5177,
      "suffers": 5178,
      "egg": 5179,
      "kor": 5180,
      "leton": 5181,
      "abor": 5182,
      "bored": 5183,
      "cks": 5184,
      "jobs": 5185,
      "kumar": 5186,
      "judy": 5187,
      "fonda": 5188,
      "insurance": 5189,
      "100": 5190,
      "bone": 5191,
      "vall": 5192,
      "ernest": 5193,
      "assum": 5194,
      "pau": 5195,
      "paralle": 5196,
      "christina": 5197,
      "engaged": 5198,
      "investigates": 5199,
      "domini": 5200,
      "massac": 5201,
      "armstrong": 5202,
      "cowboy": 5203,
      "information": 5204,
      "bounty": 5205,
      "incredible": 5206,
      "aristocr": 5207,
      "ng": 5208,
      "nig": 5209,
      "rh": 5210,
      "sni": 5211,
      "hei": 5212,
      "amnes": 5213,
      "keaton": 5214,
      "accor": 5215,
      "ached": 5216,
      "noble": 5217,
      "warner": 5218,
      "stephan": 5219,
      "ishment": 5220,
      "harold": 5221,
      "glass": 5222,
      "starting": 5223,
      "satis": 5224,
      "doll": 5225,
      "sidney": 5226,
      "cliff": 5227,
      "authorities": 5228,
      "convict": 5229,
      "weapons": 5230,
      "painting": 5231,
      "griffith": 5232,
      "gina": 5233,
      "iya": 5234,
      "lene": 5235,
      "vit": 5236,
      "stick": 5237,
      "orders": 5238,
      "hole": 5239,
      "geoff": 5240,
      "meg": 5241,
      "laws": 5242,
      "opens": 5243,
      "wars": 5244,
      "parts": 5245,
      "interested": 5246,
      "unexpectedly": 5247,
      "faithful": 5248,
      "valerie": 5249,
      "melanie": 5250,
      "retirement": 5251,
      "philosop": 5252,
      "ggy": 5253,
      "osis": 5254,
      "ido": 5255,
      "powell": 5256,
      "aker": 5257,
      "least": 5258,
      "winner": 5259,
      "penn": 5260,
      "humili": 5261,
      "barrymore": 5262,
      "paradise": 5263,
      "circumstances": 5264,
      "magazine": 5265,
      "kane": 5266,
      "rust": 5267,
      "til": 5268,
      "wakes": 5269,
      "hear": 5270,
      "invis": 5271,
      "riz": 5272,
      "dian": 5273,
      "tak": 5274,
      "bog": 5275,
      "iga": 5276,
      "cious": 5277,
      "except": 5278,
      "ateur": 5279,
      "creation": 5280,
      "monica": 5281,
      "choose": 5282,
      "lieuten": 5283,
      "jeanne": 5284,
      "strikes": 5285,
      "promise": 5286,
      "adopted": 5287,
      "physical": 5288,
      "crawford": 5289,
      "bson": 5290,
      "lily": 5291,
      "lara": 5292,
      "sic": 5293,
      "enna": 5294,
      "esa": 5295,
      "ello": 5296,
      "iran": 5297,
      "adian": 5298,
      "peck": 5299,
      "ieu": 5300,
      "marily": 5301,
      "exc": 5302,
      "quer": 5303,
      "fright": 5304,
      "ricky": 5305,
      "carrad": 5306,
      "tyler": 5307,
      "burns": 5308,
      "alec": 5309,
      "linds": 5310,
      "population": 5311,
      "dogs": 5312,
      "rupt": 5313,
      "promo": 5314,
      "invites": 5315,
      "wishes": 5316,
      "olivier": 5317,
      "kathleen": 5318,
      "gradu": 5319,
      "photograph": 5320,
      "bishop": 5321,
      "challenges": 5322,
      "inhabit": 5323,
      "carradine": 5324,
      "ethan": 5325,
      "fans": 5326,
      "ames": 5327,
      "defin": 5328,
      "drun": 5329,
      "drunk": 5330,
      "marion": 5331,
      "consum": 5332,
      "trio": 5333,
      "porn": 5334,
      "anime": 5335,
      "medic": 5336,
      "drif": 5337,
      "effects": 5338,
      "troops": 5339,
      "adoles": 5340,
      "servant": 5341,
      "pressure": 5342,
      "execution": 5343,
      "bachel": 5344,
      "multiple": 5345,
      "lindsay": 5346,
      "cattle": 5347,
      "ired": 5348,
      "rever": 5349,
      "redem": 5350,
      "core": 5351,
      "consci": 5352,
      "acey": 5353,
      "acting": 5354,
      "intense": 5355,
      "bene": 5356,
      "efforts": 5357,
      "attacks": 5358,
      "attacked": 5359,
      "deeply": 5360,
      "sadistic": 5361,
      "shocking": 5362,
      "fasc": 5363,
      "michele": 5364,
      "dup": 5365,
      "scor": 5366,
      "yaku": 5367,
      "alberto": 5368,
      "omar": 5369,
      "cab": 5370,
      "nei": 5371,
      "nowhere": 5372,
      "quette": 5373,
      "focuses": 5374,
      "canadian": 5375,
      "denis": 5376,
      "drew": 5377,
      "shawn": 5378,
      "versary": 5379,
      "ionship": 5380,
      "hitler": 5381,
      "casino": 5382,
      "captures": 5383,
      "mutant": 5384,
      "tourist": 5385,
      "marijuana": 5386,
      "kurt": 5387,
      "piano": 5388,
      "engineer": 5389,
      "bang": 5390,
      "hate": 5391,
      "uous": 5392,
      "vous": 5393,
      "ambition": 5394,
      "deta": 5395,
      "loren": 5396,
      "terms": 5397,
      "moti": 5398,
      "lap": 5399,
      "agan": 5400,
      "visions": 5401,
      "bury": 5402,
      "write": 5403,
      "rush": 5404,
      "princi": 5405,
      "stuck": 5406,
      "demons": 5407,
      "seduction": 5408,
      "vigil": 5409,
      "dysfunction": 5410,
      "snake": 5411,
      "yakuza": 5412,
      "och": 5413,
      "rans": 5414,
      "wiz": 5415,
      "hetti": 5416,
      "stig": 5417,
      "issues": 5418,
      "seth": 5419,
      "adol": 5420,
      "raise": 5421,
      "feud": 5422,
      "joanna": 5423,
      "afghan": 5424,
      "spending": 5425,
      "paolo": 5426,
      "shay": 5427,
      "stefan": 5428,
      "type": 5429,
      "zoe": 5430,
      "connection": 5431,
      "attracted": 5432,
      "contemporary": 5433,
      "territor": 5434,
      "strength": 5435,
      "lieutenant": 5436,
      "24": 5437,
      "aver": 5438,
      "dge": 5439,
      "ids": 5440,
      "kka": 5441,
      "heard": 5442,
      "ints": 5443,
      "oft": 5444,
      "amura": 5445,
      "resses": 5446,
      "neill": 5447,
      "moved": 5448,
      "mechan": 5449,
      "ians": 5450,
      "pale": 5451,
      "monk": 5452,
      "cheung": 5453,
      "minor": 5454,
      "kyle": 5455,
      "airport": 5456,
      "feeling": 5457,
      "divorced": 5458,
      "passionate": 5459,
      "crystal": 5460,
      "ario": 5461,
      "asing": 5462,
      "accepts": 5463,
      "drac": 5464,
      "haps": 5465,
      "dig": 5466,
      "tape": 5467,
      "cons": 5468,
      "fier": 5469,
      "serving": 5470,
      "firm": 5471,
      "engers": 5472,
      "commander": 5473,
      "woody": 5474,
      "planning": 5475,
      "battles": 5476,
      "onymous": 5477,
      "griffin": 5478,
      "started": 5479,
      "martine": 5480,
      "destroyed": 5481,
      "advertis": 5482,
      "citizens": 5483,
      "cers": 5484,
      "gren": 5485,
      "glover": 5486,
      "lom": 5487,
      "lds": 5488,
      "phi": 5489,
      "slo": 5490,
      "tum": 5491,
      "reput": 5492,
      "enger": 5493,
      "riding": 5494,
      "mot": 5495,
      "carrie": 5496,
      "painter": 5497,
      "fired": 5498,
      "tyr": 5499,
      "matsu": 5500,
      "matters": 5501,
      "towns": 5502,
      "decided": 5503,
      "malcolm": 5504,
      "hunters": 5505,
      "revealed": 5506,
      "tracks": 5507,
      "books": 5508,
      "recei": 5509,
      "assignment": 5510,
      "scandal": 5511,
      "chosen": 5512,
      "frankenstein": 5513,
      "gom": 5514,
      "ods": 5515,
      "yen": 5516,
      "kett": 5517,
      "roe": 5518,
      "corey": 5519,
      "exp": 5520,
      "carroll": 5521,
      "minist": 5522,
      "gued": 5523,
      "chae": 5524,
      "passengers": 5525,
      "roland": 5526,
      "regular": 5527,
      "eugene": 5528,
      "facing": 5529,
      "psychic": 5530,
      "defense": 5531,
      "kristen": 5532,
      "fishing": 5533,
      "brendan": 5534,
      "swedish": 5535,
      "redemption": 5536,
      "lone": 5537,
      "rina": 5538,
      "vick": 5539,
      "ank": 5540,
      "anita": 5541,
      "ensues": 5542,
      "argent": 5543,
      "isha": 5544,
      "alain": 5545,
      "worlds": 5546,
      "lowe": 5547,
      "dial": 5548,
      "cope": 5549,
      "goal": 5550,
      "framed": 5551,
      "surf": 5552,
      "holly": 5553,
      "ogy": 5554,
      "object": 5555,
      "clown": 5556,
      "phili": 5557,
      "couples": 5558,
      "miranda": 5559,
      "differences": 5560,
      "explore": 5561,
      "leonard": 5562,
      "kathy": 5563,
      "touch": 5564,
      "influence": 5565,
      "energy": 5566,
      "script": 5567,
      "patients": 5568,
      "ckey": 5569,
      "gut": 5570,
      "kla": 5571,
      "lola": 5572,
      "pard": 5573,
      "tina": 5574,
      "ink": 5575,
      "erik": 5576,
      "eson": 5577,
      "access": 5578,
      "deed": 5579,
      "lovely": 5580,
      "teach": 5581,
      "therland": 5582,
      "mei": 5583,
      "angry": 5584,
      "holy": 5585,
      "torment": 5586,
      "helping": 5587,
      "gade": 5588,
      "shakes": 5589,
      "bile": 5590,
      "knowing": 5591,
      "schne": 5592,
      "joey": 5593,
      "thirty": 5594,
      "zombies": 5595,
      "jacqueline": 5596,
      "either": 5597,
      "lionel": 5598,
      "sweden": 5599,
      "israel": 5600,
      "pamela": 5601,
      "veronica": 5602,
      "dominique": 5603,
      "conscious": 5604,
      "neither": 5605,
      "dent": 5606,
      "fitz": 5607,
      "hye": 5608,
      "lance": 5609,
      "hey": 5610,
      "total": 5611,
      "amid": 5612,
      "demo": 5613,
      "gem": 5614,
      "verly": 5615,
      "mock": 5616,
      "diary": 5617,
      "spaces": 5618,
      "sutherland": 5619,
      "sial": 5620,
      "burton": 5621,
      "ensive": 5622,
      "score": 5623,
      "racing": 5624,
      "pective": 5625,
      "mirror": 5626,
      "gambler": 5627,
      "personality": 5628,
      "giovan": 5629,
      "colonel": 5630,
      "savage": 5631,
      "protagonist": 5632,
      "ased": 5633,
      "eer": 5634,
      "jol": 5635,
      "mall": 5636,
      "enig": 5637,
      "ature": 5638,
      "edu": 5639,
      "asia": 5640,
      "roth": 5641,
      "ird": 5642,
      "neal": 5643,
      "manner": 5644,
      "nobody": 5645,
      "opening": 5646,
      "filtr": 5647,
      "monsters": 5648,
      "direct": 5649,
      "presence": 5650,
      "ogue": 5651,
      "shah": 5652,
      "happily": 5653,
      "astro": 5654,
      "clock": 5655,
      "investigating": 5656,
      "moments": 5657,
      "gilbert": 5658,
      "bollywood": 5659,
      "persu": 5660,
      "1980s": 5661,
      "landscape": 5662,
      "shelley": 5663,
      "sylvia": 5664,
      "traditional": 5665,
      "hoffman": 5666,
      "knife": 5667,
      "resurre": 5668,
      "emmanuelle": 5669,
      "massacre": 5670,
      "dysfunctional": 5671,
      "ase": 5672,
      "chel": 5673,
      "site": 5674,
      "inte": 5675,
      "level": 5676,
      "fee": 5677,
      "teens": 5678,
      "boston": 5679,
      "agu": 5680,
      "spag": 5681,
      "brandon": 5682,
      "minute": 5683,
      "corpse": 5684,
      "overview": 5685,
      "players": 5686,
      "announ": 5687,
      "billion": 5688,
      "watching": 5689,
      "officers": 5690,
      "distant": 5691,
      "invited": 5692,
      "welcome": 5693,
      "spot": 5694,
      "convinces": 5695,
      "brazilian": 5696,
      "swimming": 5697,
      "source": 5698,
      "assault": 5699,
      "controversial": 5700,
      "bachelor": 5701,
      "dracula": 5702,
      "fine": 5703,
      "sang": 5704,
      "outer": 5705,
      "olga": 5706,
      "deaf": 5707,
      "cecil": 5708,
      "abra": 5709,
      "allan": 5710,
      "tions": 5711,
      "exotic": 5712,
      "spell": 5713,
      "newman": 5714,
      "disappeared": 5715,
      "phant": 5716,
      "atty": 5717,
      "guide": 5718,
      "buster": 5719,
      "ideas": 5720,
      "ferr": 5721,
      "collection": 5722,
      "spirited": 5723,
      "frankie": 5724,
      "transfer": 5725,
      "apocalypse": 5726,
      "huston": 5727,
      "elisabeth": 5728,
      "cartoon": 5729,
      "lena": 5730,
      "sno": 5731,
      "vine": 5732,
      "zor": 5733,
      "hook": 5734,
      "agues": 5735,
      "filmmakers": 5736,
      "earl": 5737,
      "minutes": 5738,
      "katherine": 5739,
      "aney": 5740,
      "werner": 5741,
      "visiting": 5742,
      "playboy": 5743,
      "deaths": 5744,
      "followed": 5745,
      "headed": 5746,
      "fanta": 5747,
      "clarke": 5748,
      "brutally": 5749,
      "florida": 5750,
      "fugitive": 5751,
      "amnesia": 5752,
      "ava": 5753,
      "cary": 5754,
      "eter": 5755,
      "feld": 5756,
      "jak": 5757,
      "mend": 5758,
      "mber": 5759,
      "wine": 5760,
      "leans": 5761,
      "aldo": 5762,
      "cage": 5763,
      "immortal": 5764,
      "comics": 5765,
      "hiko": 5766,
      "abel": 5767,
      "bye": 5768,
      "nier": 5769,
      "monkey": 5770,
      "harmon": 5771,
      "porno": 5772,
      "cyber": 5773,
      "helped": 5774,
      "letters": 5775,
      "senior": 5776,
      "knowledge": 5777,
      "salv": 5778,
      "katie": 5779,
      "pursue": 5780,
      "1930s": 5781,
      "disturbing": 5782,
      "renowned": 5783,
      "clerk": 5784,
      "routine": 5785,
      "suggest": 5786,
      "spaghetti": 5787,
      "eun": 5788,
      "tara": 5789,
      "tower": 5790,
      "casey": 5791,
      "deals": 5792,
      "nov": 5793,
      "bodies": 5794,
      "suz": 5795,
      "provide": 5796,
      "monte": 5797,
      "turner": 5798,
      "guit": 5799,
      "vices": 5800,
      "tiny": 5801,
      "carey": 5802,
      "truly": 5803,
      "grief": 5804,
      "include": 5805,
      "britain": 5806,
      "neighbour": 5807,
      "phantom": 5808,
      "joshua": 5809,
      "organized": 5810,
      "revolutionary": 5811,
      "separate": 5812,
      "industrial": 5813,
      "pictures": 5814,
      "flower": 5815,
      "blonde": 5816,
      "jing": 5817,
      "none": 5818,
      "phen": 5819,
      "pond": 5820,
      "tall": 5821,
      "wander": 5822,
      "staff": 5823,
      "ilar": 5824,
      "illo": 5825,
      "aser": 5826,
      "ashed": 5827,
      "acclaimed": 5828,
      "commer": 5829,
      "moto": 5830,
      "fei": 5831,
      "ryu": 5832,
      "nific": 5833,
      "travis": 5834,
      "fields": 5835,
      "cannibal": 5836,
      "surface": 5837,
      "chaplin": 5838,
      "walsh": 5839,
      "mila": 5840,
      "hyp": 5841,
      "angels": 5842,
      "sergei": 5843,
      "dedic": 5844,
      "talented": 5845,
      "corporation": 5846,
      "corporate": 5847,
      "wendy": 5848,
      "juni": 5849,
      "lac": 5850,
      "tto": 5851,
      "uki": 5852,
      "infiltr": 5853,
      "reign": 5854,
      "ingrid": 5855,
      "editor": 5856,
      "associ": 5857,
      "raw": 5858,
      "vert": 5859,
      "teaching": 5860,
      "conce": 5861,
      "disappears": 5862,
      "anthro": 5863,
      "neighbors": 5864,
      "passes": 5865,
      "celebration": 5866,
      "paths": 5867,
      "particip": 5868,
      "above": 5869,
      "occupied": 5870,
      "gitte": 5871,
      "wwii": 5872,
      "drunken": 5873,
      "schneider": 5874,
      "mam": 5875,
      "wic": 5876,
      "yel": 5877,
      "republic": 5878,
      "oux": 5879,
      "amoto": 5880,
      "chie": 5881,
      "nights": 5882,
      "steals": 5883,
      "charged": 5884,
      "background": 5885,
      "annon": 5886,
      "mayor": 5887,
      "mysteriously": 5888,
      "surviving": 5889,
      "judith": 5890,
      "addict": 5891,
      "adows": 5892,
      "clif": 5893,
      "location": 5894,
      "activities": 5895,
      "adrian": 5896,
      "mikhail": 5897,
      "amazing": 5898,
      "surrealism": 5899,
      "elope": 5900,
      "thousands": 5901,
      "stephanie": 5902,
      "21": 5903,
      "nice": 5904,
      "rut": 5905,
      "anto": 5906,
      "rem": 5907,
      "attit": 5908,
      "amo": 5909,
      "chop": 5910,
      "chick": 5911,
      "coon": 5912,
      "shepher": 5913,
      "eving": 5914,
      "mick": 5915,
      "racism": 5916,
      "schol": 5917,
      "danielle": 5918,
      "thinking": 5919,
      "maxim": 5920,
      "joined": 5921,
      "caroline": 5922,
      "duncan": 5923,
      "sergeant": 5924,
      "musicians": 5925,
      "treatment": 5926,
      "convicted": 5927,
      "stealing": 5928,
      "weather": 5929,
      "suspicion": 5930,
      "built": 5931,
      "phenom": 5932,
      "bust": 5933,
      "gate": 5934,
      "anarch": 5935,
      "inn": 5936,
      "remark": 5937,
      "reunite": 5938,
      "oni": 5939,
      "toward": 5940,
      "edgar": 5941,
      "teresa": 5942,
      "forgotten": 5943,
      "idal": 5944,
      "sheen": 5945,
      "vio": 5946,
      "shane": 5947,
      "relent": 5948,
      "charis": 5949,
      "prepar": 5950,
      "otto": 5951,
      "hugo": 5952,
      "bloom": 5953,
      "drag": 5954,
      "submarine": 5955,
      "juliette": 5956,
      "macdonald": 5957,
      "civilization": 5958,
      "cruise": 5959,
      "dome": 5960,
      "hearts": 5961,
      "represent": 5962,
      "aman": 5963,
      "resol": 5964,
      "det": 5965,
      "mast": 5966,
      "mads": 5967,
      "petty": 5968,
      "igan": 5969,
      "butter": 5970,
      "poke": 5971,
      "provo": 5972,
      "bryan": 5973,
      "ryn": 5974,
      "viously": 5975,
      "trap": 5976,
      "colum": 5977,
      "gery": 5978,
      "adventur": 5979,
      "americans": 5980,
      "mcdo": 5981,
      "novelist": 5982,
      "election": 5983,
      "silence": 5984,
      "millions": 5985,
      "slaughter": 5986,
      "pieces": 5987,
      "roberto": 5988,
      "imagination": 5989,
      "connect": 5990,
      "fatal": 5991,
      "separated": 5992,
      "candid": 5993,
      "inspiration": 5994,
      "exactly": 5995,
      "ahead": 5996,
      "ively": 5997,
      "jet": 5998,
      "kun": 5999,
      "knew": 6000,
      "lic": 6001,
      "pad": 6002,
      "ency": 6003,
      "atl": 6004,
      "alfred": 6005,
      "beverly": 6006,
      "coma": 6007,
      "convers": 6008,
      "agree": 6009,
      "expose": 6010,
      "sole": 6011,
      "fake": 6012,
      "backdrop": 6013,
      "duo": 6014,
      "posing": 6015,
      "hyun": 6016,
      "cusack": 6017,
      "zoo": 6018,
      "appearance": 6019,
      "blair": 6020,
      "mobster": 6021,
      "deserted": 6022,
      "environment": 6023,
      "employee": 6024,
      "maniac": 6025,
      "property": 6026,
      "inheritance": 6027,
      "ransom": 6028,
      "advertising": 6029,
      "aj": 6030,
      "fist": 6031,
      "oon": 6032,
      "table": 6033,
      "hein": 6034,
      "infamous": 6035,
      "genet": 6036,
      "urs": 6037,
      "teri": 6038,
      "neck": 6039,
      "mete": 6040,
      "contain": 6041,
      "davies": 6042,
      "prophe": 6043,
      "aks": 6044,
      "disorder": 6045,
      "brooke": 6046,
      "steel": 6047,
      "dynam": 6048,
      "somehow": 6049,
      "surgeon": 6050,
      "duel": 6051,
      "gior": 6052,
      "owners": 6053,
      "ashing": 6054,
      "colleague": 6055,
      "midnight": 6056,
      "investigator": 6057,
      "twel": 6058,
      "compete": 6059,
      "1950s": 6060,
      "transformation": 6061,
      "duty": 6062,
      "drink": 6063,
      "sleeping": 6064,
      "deeper": 6065,
      "constantly": 6066,
      "potential": 6067,
      "rhys": 6068,
      "fs": 6069,
      "oy": 6070,
      "randy": 6071,
      "toshi": 6072,
      "tiger": 6073,
      "strom": 6074,
      "itter": 6075,
      "image": 6076,
      "construction": 6077,
      "opho": 6078,
      "spider": 6079,
      "perhaps": 6080,
      "fool": 6081,
      "mentally": 6082,
      "jected": 6083,
      "check": 6084,
      "mining": 6085,
      "minds": 6086,
      "saved": 6087,
      "polish": 6088,
      "relatives": 6089,
      "previous": 6090,
      "glad": 6091,
      "belle": 6092,
      "hardy": 6093,
      "gangsters": 6094,
      "runaway": 6095,
      "flir": 6096,
      "syd": 6097,
      "hammer": 6098,
      "lonel": 6099,
      "souls": 6100,
      "roommate": 6101,
      "kidnaps": 6102,
      "caused": 6103,
      "circle": 6104,
      "brenda": 6105,
      "eastern": 6106,
      "adults": 6107,
      "safety": 6108,
      "dominic": 6109,
      "economic": 6110,
      "enlists": 6111,
      "rodrigue": 6112,
      "bom": 6113,
      "eat": 6114,
      "fy": 6115,
      "gel": 6116,
      "nity": 6117,
      "pak": 6118,
      "sold": 6119,
      "amateur": 6120,
      "causing": 6121,
      "riley": 6122,
      "roles": 6123,
      "lian": 6124,
      "mobile": 6125,
      "pest": 6126,
      "mara": 6127,
      "evgen": 6128,
      "shut": 6129,
      "morrow": 6130,
      "wska": 6131,
      "stands": 6132,
      "tight": 6133,
      "teachers": 6134,
      "mitch": 6135,
      "portray": 6136,
      "florence": 6137,
      "bradley": 6138,
      "activist": 6139,
      "voyage": 6140,
      "opposite": 6141,
      "dag": 6142,
      "mund": 6143,
      "vian": 6144,
      "inda": 6145,
      "eri": 6146,
      "theo": 6147,
      "enjoy": 6148,
      "orleans": 6149,
      "album": 6150,
      "omy": 6151,
      "elvis": 6152,
      "advice": 6153,
      "hijack": 6154,
      "marvel": 6155,
      "blues": 6156,
      "helena": 6157,
      "choi": 6158,
      "delin": 6159,
      "hearted": 6160,
      "promises": 6161,
      "affairs": 6162,
      "route": 6163,
      "suspicious": 6164,
      "smuggling": 6165,
      "wounded": 6166,
      "nigel": 6167,
      "loneliness": 6168,
      "bure": 6169,
      "lil": 6170,
      "pist": 6171,
      "sne": 6172,
      "tes": 6173,
      "stance": 6174,
      "sect": 6175,
      "reser": 6176,
      "chau": 6177,
      "ental": 6178,
      "peasant": 6179,
      "tae": 6180,
      "lessons": 6181,
      "quel": 6182,
      "paid": 6183,
      "frustr": 6184,
      "collabor": 6185,
      "greed": 6186,
      "surve": 6187,
      "glory": 6188,
      "vana": 6189,
      "burgh": 6190,
      "masked": 6191,
      "folds": 6192,
      "daniels": 6193,
      "exploitation": 6194,
      "budd": 6195,
      "demands": 6196,
      "bottom": 6197,
      "connected": 6198,
      "kathar": 6199,
      "marshal": 6200,
      "paper": 6201,
      "reluctantly": 6202,
      "widower": 6203,
      "imprisoned": 6204,
      "territory": 6205,
      "shakespe": 6206,
      "mers": 6207,
      "vitt": 6208,
      "ince": 6209,
      "thetic": 6210,
      "admir": 6211,
      "lious": 6212,
      "motel": 6213,
      "text": 6214,
      "tag": 6215,
      "ext": 6216,
      "exchange": 6217,
      "fails": 6218,
      "carni": 6219,
      "clos": 6220,
      "ppi": 6221,
      "matth": 6222,
      "burke": 6223,
      "elyn": 6224,
      "maya": 6225,
      "kari": 6226,
      "catches": 6227,
      "brave": 6228,
      "indians": 6229,
      "kinson": 6230,
      "rocky": 6231,
      "hopkins": 6232,
      "captive": 6233,
      "sharon": 6234,
      "slum": 6235,
      "threaten": 6236,
      "keeping": 6237,
      "kristin": 6238,
      "didn": 6239,
      "rebellious": 6240,
      "allows": 6241,
      "uncovers": 6242,
      "invisible": 6243,
      "afghanistan": 6244,
      "spaceship": 6245,
      "rodriguez": 6246,
      "cant": 6247,
      "mute": 6248,
      "tang": 6249,
      "gender": 6250,
      "deter": 6251,
      "caster": 6252,
      "geo": 6253,
      "drum": 6254,
      "map": 6255,
      "marina": 6256,
      "exor": 6257,
      "cars": 6258,
      "clara": 6259,
      "shannon": 6260,
      "jee": 6261,
      "muslim": 6262,
      "kazu": 6263,
      "miami": 6264,
      "holo": 6265,
      "mccar": 6266,
      "forms": 6267,
      "legacy": 6268,
      "regard": 6269,
      "governor": 6270,
      "doris": 6271,
      "plague": 6272,
      "reasons": 6273,
      "guests": 6274,
      "stumbles": 6275,
      "mercenary": 6276,
      "inhabitants": 6277,
      "pokemon": 6278,
      "bates": 6279,
      "cig": 6280,
      "cure": 6281,
      "candy": 6282,
      "hic": 6283,
      "ially": 6284,
      "kans": 6285,
      "moss": 6286,
      "shim": 6287,
      "saf": 6288,
      "edwards": 6289,
      "forget": 6290,
      "forward": 6291,
      "rag": 6292,
      "nephe": 6293,
      "distr": 6294,
      "tricks": 6295,
      "propag": 6296,
      "traum": 6297,
      "answers": 6298,
      "began": 6299,
      "solution": 6300,
      "cuba": 6301,
      "sharp": 6302,
      "scientific": 6303,
      "dolph": 6304,
      "massive": 6305,
      "dutch": 6306,
      "reading": 6307,
      "warriors": 6308,
      "horrific": 6309,
      "brazil": 6310,
      "wheelchair": 6311,
      "anniversary": 6312,
      "unemployed": 6313,
      "parallel": 6314,
      "twelve": 6315,
      "avenge": 6316,
      "uck": 6317,
      "strict": 6318,
      "atra": 6319,
      "chand": 6320,
      "lift": 6321,
      "loe": 6322,
      "comment": 6323,
      "term": 6324,
      "necess": 6325,
      "teer": 6326,
      "poker": 6327,
      "qui": 6328,
      "actual": 6329,
      "colli": 6330,
      "dane": 6331,
      "composer": 6332,
      "plots": 6333,
      "solit": 6334,
      "drake": 6335,
      "balance": 6336,
      "simmons": 6337,
      "breakdown": 6338,
      "ahl": 6339,
      "miracle": 6340,
      "continu": 6341,
      "haunting": 6342,
      "emotions": 6343,
      "championship": 6344,
      "understanding": 6345,
      "naked": 6346,
      "hughes": 6347,
      "according": 6348,
      "remarkable": 6349,
      "domestic": 6350,
      "shakespeare": 6351,
      "dc": 6352,
      "dred": 6353,
      "een": 6354,
      "ique": 6355,
      "kare": 6356,
      "rate": 6357,
      "uf": 6358,
      "yos": 6359,
      "yas": 6360,
      "zing": 6361,
      "reid": 6362,
      "orn": 6363,
      "acles": 6364,
      "rig": 6365,
      "riam": 6366,
      "chad": 6367,
      "commission": 6368,
      "idi": 6369,
      "hab": 6370,
      "cohen": 6371,
      "april": 6372,
      "creating": 6373,
      "documents": 6374,
      "ffy": 6375,
      "willis": 6376,
      "preston": 6377,
      "corn": 6378,
      "gibson": 6379,
      "burning": 6380,
      "brigitte": 6381,
      "garner": 6382,
      "pleasure": 6383,
      "terrorists": 6384,
      "region": 6385,
      "maintain": 6386,
      "demand": 6387,
      "panic": 6388,
      "ucci": 6389,
      "ladies": 6390,
      "deceased": 6391,
      "protection": 6392,
      "therapy": 6393,
      "wrestling": 6394,
      "engagement": 6395,
      "geoffrey": 6396,
      "wizard": 6397,
      "integr": 6398,
      "junior": 6399,
      "antoine": 6400,
      "dall": 6401,
      "kus": 6402,
      "rine": 6403,
      "sort": 6404,
      "stair": 6405,
      "icidal": 6406,
      "olson": 6407,
      "petr": 6408,
      "ablo": 6409,
      "outrage": 6410,
      "disab": 6411,
      "shu": 6412,
      "desires": 6413,
      "prehistoric": 6414,
      "gret": 6415,
      "jae": 6416,
      "winds": 6417,
      "farrell": 6418,
      "pride": 6419,
      "linger": 6420,
      "villagers": 6421,
      "similar": 6422,
      "gorge": 6423,
      "pedro": 6424,
      "fourth": 6425,
      "purpose": 6426,
      "terrorism": 6427,
      "regime": 6428,
      "sequent": 6429,
      "psychologist": 6430,
      "recorded": 6431,
      "hills": 6432,
      "miguel": 6433,
      "deception": 6434,
      "extrem": 6435,
      "examines": 6436,
      "carrying": 6437,
      "reputation": 6438,
      "democr": 6439,
      "meteor": 6440,
      "bic": 6441,
      "eas": 6442,
      "nath": 6443,
      "rug": 6444,
      "swit": 6445,
      "wig": 6446,
      "alie": 6447,
      "kept": 6448,
      "unfolds": 6449,
      "bett": 6450,
      "ading": 6451,
      "liar": 6452,
      "gee": 6453,
      "ardieu": 6454,
      "quis": 6455,
      "iah": 6456,
      "ryo": 6457,
      "omez": 6458,
      "trav": 6459,
      "insan": 6460,
      "rises": 6461,
      "mona": 6462,
      "sibly": 6463,
      "serve": 6464,
      "harsh": 6465,
      "depardieu": 6466,
      "window": 6467,
      "tempt": 6468,
      "vows": 6469,
      "colleagues": 6470,
      "ballet": 6471,
      "bullet": 6472,
      "troubles": 6473,
      "occas": 6474,
      "chess": 6475,
      "revolves": 6476,
      "peaceful": 6477,
      "illian": 6478,
      "inventor": 6479,
      "impact": 6480,
      "achieve": 6481,
      "revealing": 6482,
      "exploration": 6483,
      "critic": 6484,
      "paranoia": 6485,
      "marilyn": 6486,
      "shepherd": 6487,
      "propaganda": 6488,
      "dress": 6489,
      "pha": 6490,
      "sting": 6491,
      "ality": 6492,
      "tot": 6493,
      "escor": 6494,
      "icop": 6495,
      "aska": 6496,
      "cafe": 6497,
      "chor": 6498,
      "beer": 6499,
      "verge": 6500,
      "absur": 6501,
      "cocaine": 6502,
      "agnes": 6503,
      "throne": 6504,
      "famili": 6505,
      "lifetime": 6506,
      "clash": 6507,
      "creative": 6508,
      "polar": 6509,
      "burgl": 6510,
      "benson": 6511,
      "formed": 6512,
      "draws": 6513,
      "heroin": 6514,
      "locals": 6515,
      "anthology": 6516,
      "mistake": 6517,
      "experienced": 6518,
      "rapid": 6519,
      "device": 6520,
      "nikol": 6521,
      "orphaned": 6522,
      "performances": 6523,
      "mythology": 6524,
      "particularly": 6525,
      "beneath": 6526,
      "abraham": 6527,
      "commercial": 6528,
      "mccarthy": 6529,
      "gur": 6530,
      "gomez": 6531,
      "hos": 6532,
      "kol": 6533,
      "kish": 6534,
      "xia": 6535,
      "yun": 6536,
      "sted": 6537,
      "keen": 6538,
      "unf": 6539,
      "illustr": 6540,
      "allison": 6541,
      "wei": 6542,
      "carp": 6543,
      "carr": 6544,
      "blin": 6545,
      "helicop": 6546,
      "designer": 6547,
      "centers": 6548,
      "depicts": 6549,
      "natasha": 6550,
      "worked": 6551,
      "walks": 6552,
      "simply": 6553,
      "passing": 6554,
      "seymour": 6555,
      "gging": 6556,
      "dollars": 6557,
      "recording": 6558,
      "kaya": 6559,
      "broadcast": 6560,
      "transport": 6561,
      "phillip": 6562,
      "entertainment": 6563,
      "wagner": 6564,
      "crooked": 6565,
      "vigilante": 6566,
      "nephew": 6567,
      "fts": 6568,
      "gad": 6569,
      "whis": 6570,
      "ances": 6571,
      "repe": 6572,
      "ariz": 6573,
      "asa": 6574,
      "caust": 6575,
      "hides": 6576,
      "maure": 6577,
      "peggy": 6578,
      "meth": 6579,
      "diaz": 6580,
      "ques": 6581,
      "prey": 6582,
      "underwater": 6583,
      "juven": 6584,
      "georgia": 6585,
      "ights": 6586,
      "grim": 6587,
      "pleas": 6588,
      "mills": 6589,
      "stripper": 6590,
      "palace": 6591,
      "bbie": 6592,
      "holden": 6593,
      "passed": 6594,
      "audrey": 6595,
      "custody": 6596,
      "sailor": 6597,
      "virtual": 6598,
      "bby": 6599,
      "kul": 6600,
      "nut": 6601,
      "yvon": 6602,
      "zone": 6603,
      "instru": 6604,
      "erin": 6605,
      "rebell": 6606,
      "accomp": 6607,
      "chann": 6608,
      "abusive": 6609,
      "coy": 6610,
      "taker": 6611,
      "cile": 6612,
      "filming": 6613,
      "proceed": 6614,
      "clues": 6615,
      "naomi": 6616,
      "mentor": 6617,
      "venice": 6618,
      "toni": 6619,
      "mile": 6620,
      "greene": 6621,
      "benef": 6622,
      "robbers": 6623,
      "talks": 6624,
      "capable": 6625,
      "madison": 6626,
      "showing": 6627,
      "alexis": 6628,
      "gypsy": 6629,
      "grandson": 6630,
      "niece": 6631,
      "hayes": 6632,
      "cruz": 6633,
      "client": 6634,
      "remaining": 6635,
      "bailey": 6636,
      "injured": 6637,
      "initially": 6638,
      "60": 6639,
      "flynn": 6640,
      "gni": 6641,
      "uit": 6642,
      "enzie": 6643,
      "arquette": 6644,
      "alley": 6645,
      "resour": 6646,
      "liz": 6647,
      "illusion": 6648,
      "teaches": 6649,
      "tap": 6650,
      "taka": 6651,
      "artific": 6652,
      "progress": 6653,
      "grues": 6654,
      "kota": 6655,
      "counts": 6656,
      "bandit": 6657,
      "posal": 6658,
      "scul": 6659,
      "ronald": 6660,
      "studies": 6661,
      "experiments": 6662,
      "development": 6663,
      "emotionally": 6664,
      "crosses": 6665,
      "zero": 6666,
      "affection": 6667,
      "symbol": 6668,
      "graphic": 6669,
      "honeymoon": 6670,
      "recogni": 6671,
      "byrne": 6672,
      "gorgeous": 6673,
      "familiar": 6674,
      "ethe": 6675,
      "ett": 6676,
      "eager": 6677,
      "mild": 6678,
      "pom": 6679,
      "pablo": 6680,
      "vul": 6681,
      "vich": 6682,
      "ør": 6683,
      "heal": 6684,
      "online": 6685,
      "stad": 6686,
      "stress": 6687,
      "archae": 6688,
      "issi": 6689,
      "escal": 6690,
      "chloe": 6691,
      "genre": 6692,
      "negle": 6693,
      "hai": 6694,
      "conserv": 6695,
      "bran": 6696,
      "crist": 6697,
      "month": 6698,
      "....": 6699,
      "breath": 6700,
      "simone": 6701,
      "knock": 6702,
      "nanny": 6703,
      "shortly": 6704,
      "palmer": 6705,
      "homicide": 6706,
      "cheng": 6707,
      "entirely": 6708,
      "montgom": 6709,
      "laurie": 6710,
      "amazon": 6711,
      "considered": 6712,
      "sofia": 6713,
      "loyalty": 6714,
      "extremely": 6715,
      "montgomery": 6716,
      "cze": 6717,
      "lana": 6718,
      "ox": 6719,
      "push": 6720,
      "swords": 6721,
      "ension": 6722,
      "oming": 6723,
      "rot": 6724,
      "roof": 6725,
      "unaware": 6726,
      "noel": 6727,
      "agi": 6728,
      "express": 6729,
      "endless": 6730,
      "angers": 6731,
      "jeong": 6732,
      "chef": 6733,
      "surgery": 6734,
      "miser": 6735,
      "mato": 6736,
      "owned": 6737,
      "writes": 6738,
      "household": 6739,
      "temper": 6740,
      "discovering": 6741,
      "gangs": 6742,
      "shares": 6743,
      "drives": 6744,
      "catastro": 6745,
      "spirits": 6746,
      "radical": 6747,
      "earthqu": 6748,
      "bergman": 6749,
      "flees": 6750,
      "orphanage": 6751,
      "sergey": 6752,
      "performing": 6753,
      "signs": 6754,
      "message": 6755,
      "eroticism": 6756,
      "crowd": 6757,
      "surrounding": 6758,
      "pearl": 6759,
      "manipul": 6760,
      "arranged": 6761,
      "melodrama": 6762,
      "helicopter": 6763,
      "aven": 6764,
      "dong": 6765,
      "kom": 6766,
      "lass": 6767,
      "size": 6768,
      "yang": 6769,
      "на": 6770,
      "anonymous": 6771,
      "theory": 6772,
      "stable": 6773,
      "imin": 6774,
      "hockey": 6775,
      "manu": 6776,
      "marcus": 6777,
      "failing": 6778,
      "fulfill": 6779,
      "cano": 6780,
      "porter": 6781,
      "dono": 6782,
      "mature": 6783,
      "wai": 6784,
      "alek": 6785,
      "nings": 6786,
      "showdown": 6787,
      "generations": 6788,
      "sanders": 6789,
      "developed": 6790,
      "tournam": 6791,
      "richards": 6792,
      "widowed": 6793,
      "railroad": 6794,
      "bjork": 6795,
      "dama": 6796,
      "hm": 6797,
      "itch": 6798,
      "ishes": 6799,
      "alys": 6800,
      "aming": 6801,
      "thier": 6802,
      "rian": 6803,
      "elsa": 6804,
      "roads": 6805,
      "ump": 6806,
      "joon": 6807,
      "cio": 6808,
      "shady": 6809,
      "broke": 6810,
      "miniser": 6811,
      "shown": 6812,
      "tried": 6813,
      "somewhere": 6814,
      "holland": 6815,
      "everybody": 6816,
      "mostly": 6817,
      "gains": 6818,
      "midst": 6819,
      "heroic": 6820,
      "sentence": 6821,
      "felix": 6822,
      "aids": 6823,
      "buddies": 6824,
      "minded": 6825,
      "halluc": 6826,
      "booth": 6827,
      "transformed": 6828,
      "hanging": 6829,
      "confrontation": 6830,
      "blanc": 6831,
      "rocket": 6832,
      "dimension": 6833,
      "conventional": 6834,
      "geraldine": 6835,
      "twisted": 6836,
      "hitchhi": 6837,
      "provides": 6838,
      "philipp": 6839,
      "bureau": 6840,
      "miniseries": 6841,
      "ores": 6842,
      "pent": 6843,
      "pry": 6844,
      "ranger": 6845,
      "inc": 6846,
      "ards": 6847,
      "leung": 6848,
      "lethal": 6849,
      "edmund": 6850,
      "chung": 6851,
      "rook": 6852,
      "undead": 6853,
      "feet": 6854,
      "quir": 6855,
      "apple": 6856,
      "warm": 6857,
      "carla": 6858,
      "grac": 6859,
      "harbor": 6860,
      "typical": 6861,
      "duck": 6862,
      "franz": 6863,
      "writ": 6864,
      "nora": 6865,
      "wells": 6866,
      "bible": 6867,
      "annual": 6868,
      "penny": 6869,
      "leged": 6870,
      "eleanor": 6871,
      "subsequent": 6872,
      "involves": 6873,
      "profession": 6874,
      "homes": 6875,
      "batman": 6876,
      "pirates": 6877,
      "anied": 6878,
      "laurent": 6879,
      "delivery": 6880,
      "federal": 6881,
      "episod": 6882,
      "searches": 6883,
      "rabbit": 6884,
      "fantastic": 6885,
      "yellow": 6886,
      "kansas": 6887,
      "yvonne": 6888,
      "accompanied": 6889,
      "dil": 6890,
      "dary": 6891,
      "plast": 6892,
      "zhang": 6893,
      "height": 6894,
      "reilly": 6895,
      "ono": 6896,
      "sele": 6897,
      "ilities": 6898,
      "thugs": 6899,
      "elia": 6900,
      "destruct": 6901,
      "robo": 6902,
      "ader": 6903,
      "ulu": 6904,
      "note": 6905,
      "hagen": 6906,
      "havoc": 6907,
      "meant": 6908,
      "taste": 6909,
      "concent": 6910,
      "quaid": 6911,
      "finish": 6912,
      "whate": 6913,
      "rico": 6914,
      "ricardo": 6915,
      "blings": 6916,
      "saves": 6917,
      "serves": 6918,
      "preced": 6919,
      "friendly": 6920,
      "somewhat": 6921,
      "duvall": 6922,
      "mathi": 6923,
      "bette": 6924,
      "cyborg": 6925,
      "warden": 6926,
      "shaolin": 6927,
      "closed": 6928,
      "hoodlum": 6929,
      "rooms": 6930,
      "attempting": 6931,
      "budget": 6932,
      "stays": 6933,
      "figures": 6934,
      "basement": 6935,
      "network": 6936,
      "isolation": 6937,
      "psychotic": 6938,
      "bachchan": 6939,
      "environmental": 6940,
      "viktor": 6941,
      "drifter": 6942,
      "maureen": 6943,
      "mings": 6944,
      "tut": 6945,
      "amoun": 6946,
      "assem": 6947,
      "accompl": 6948,
      "chun": 6949,
      "rogue": 6950,
      "unhappy": 6951,
      "imper": 6952,
      "idol": 6953,
      "doc": 6954,
      "marisa": 6955,
      "connie": 6956,
      "whel": 6957,
      "dais": 6958,
      "carole": 6959,
      "shadows": 6960,
      "prejud": 6961,
      "grapher": 6962,
      "patter": 6963,
      "brett": 6964,
      "fantas": 6965,
      "walt": 6966,
      "tender": 6967,
      "andreas": 6968,
      "silva": 6969,
      "gym": 6970,
      "sentenced": 6971,
      "rupert": 6972,
      "yoko": 6973,
      "lambert": 6974,
      "chronicle": 6975,
      "shangh": 6976,
      "prepare": 6977,
      "idyll": 6978,
      "brittany": 6979,
      "finnish": 6980,
      "insanity": 6981,
      "gruesome": 6982,
      "tournament": 6983,
      "ien": 6984,
      "ware": 6985,
      "wak": 6986,
      "anu": 6987,
      "instant": 6988,
      "revel": 6989,
      "arctic": 6990,
      "eder": 6991,
      "caval": 6992,
      "chat": 6993,
      "lyle": 6994,
      "mares": 6995,
      "megan": 6996,
      "cott": 6997,
      "youngest": 6998,
      "turkey": 6999,
      "brothel": 7000,
      "chester": 7001,
      "centered": 7002,
      "vino": 7003,
      "fergus": 7004,
      "volun": 7005,
      "archi": 7006,
      "elev": 7007,
      "campus": 7008,
      "tested": 7009,
      "hyde": 7010,
      "phoen": 7011,
      "damon": 7012,
      "imagined": 7013,
      "kathryn": 7014,
      "floor": 7015,
      "robertson": 7016,
      "brutality": 7017,
      "poetry": 7018,
      "dialogue": 7019,
      "incest": 7020,
      "artificial": 7021,
      "das": 7022,
      "eis": 7023,
      "gna": 7024,
      "iy": 7025,
      "lers": 7026,
      "rul": 7027,
      "sas": 7028,
      "uz": 7029,
      "anx": 7030,
      "reaches": 7031,
      "retreat": 7032,
      "thed": 7033,
      "ender": 7034,
      "enjo": 7035,
      "enchant": 7036,
      "iland": 7037,
      "thia": 7038,
      "cale": 7039,
      "befriend": 7040,
      "forge": 7041,
      "hibition": 7042,
      "mae": 7043,
      "dock": 7044,
      "marx": 7045,
      "joa": 7046,
      "brady": 7047,
      "gran": 7048,
      "inski": 7049,
      "shore": 7050,
      "sergio": 7051,
      "redgrave": 7052,
      "crum": 7053,
      "colla": 7054,
      "greedy": 7055,
      "overwhel": 7056,
      "counsel": 7057,
      "sexually": 7058,
      "highway": 7059,
      "suspected": 7060,
      "solo": 7061,
      "ruin": 7062,
      "ruby": 7063,
      "alike": 7064,
      "hundred": 7065,
      "hopper": 7066,
      "thoughts": 7067,
      "blade": 7068,
      "possessed": 7069,
      "complications": 7070,
      "fighters": 7071,
      "crossed": 7072,
      "pianist": 7073,
      "olympic": 7074,
      "charismatic": 7075,
      "holocaust": 7076,
      "disabled": 7077,
      "whatever": 7078,
      "70": 7079,
      "ajay": 7080,
      "dell": 7081,
      "ego": 7082,
      "jou": 7083,
      "jang": 7084,
      "pia": 7085,
      "santi": 7086,
      "uary": 7087,
      "vital": 7088,
      "rei": 7089,
      "retri": 7090,
      "stunt": 7091,
      "atomic": 7092,
      "sei": 7093,
      "aland": 7094,
      "thunder": 7095,
      "cham": 7096,
      "chard": 7097,
      "adel": 7098,
      "liv": 7099,
      "libr": 7100,
      "ceme": 7101,
      "hap": 7102,
      "lain": 7103,
      "joanne": 7104,
      "enda": 7105,
      "ellis": 7106,
      "insight": 7107,
      "chez": 7108,
      "mini": 7109,
      "barn": 7110,
      "siblings": 7111,
      "michi": 7112,
      "paranor": 7113,
      "previously": 7114,
      "murdering": 7115,
      "valu": 7116,
      "prank": 7117,
      "vania": 7118,
      "jonas": 7119,
      "independence": 7120,
      "rupted": 7121,
      "communic": 7122,
      "threatening": 7123,
      "shift": 7124,
      "devoted": 7125,
      "pressive": 7126,
      "situ": 7127,
      "celebrate": 7128,
      "greece": 7129,
      "valentine": 7130,
      "practice": 7131,
      "graphical": 7132,
      "evolution": 7133,
      "intrigue": 7134,
      "reference": 7135,
      "confronted": 7136,
      "gothic": 7137,
      "phoenix": 7138,
      "paranormal": 7139,
      "bold": 7140,
      "cities": 7141,
      "qi": 7142,
      "sn": 7143,
      "enthus": 7144,
      "stab": 7145,
      "stard": 7146,
      "stain": 7147,
      "alison": 7148,
      "eda": 7149,
      "kets": 7150,
      "cable": 7151,
      "ented": 7152,
      "decade": 7153,
      "debbie": 7154,
      "rox": 7155,
      "unts": 7156,
      "illance": 7157,
      "noon": 7158,
      "dipl": 7159,
      "coward": 7160,
      "conquer": 7161,
      "acker": 7162,
      "rical": 7163,
      "turing": 7164,
      "shine": 7165,
      "ugos": 7166,
      "croft": 7167,
      "directors": 7168,
      "species": 7169,
      "maybe": 7170,
      "fused": 7171,
      "andrey": 7172,
      "jorge": 7173,
      "doctors": 7174,
      "thorn": 7175,
      "attempted": 7176,
      "1940s": 7177,
      "cinematic": 7178,
      "approaches": 7179,
      "aboard": 7180,
      "packed": 7181,
      "seriously": 7182,
      "recovering": 7183,
      "kitchen": 7184,
      "prepared": 7185,
      "therapist": 7186,
      "coffee": 7187,
      "descend": 7188,
      "medicine": 7189,
      "enigmatic": 7190,
      "dedicated": 7191,
      "surveillance": 7192,
      "rebellion": 7193,
      "earthquake": 7194,
      "shanghai": 7195,
      "eag": 7196,
      "ffe": 7197,
      "ginger": 7198,
      "jn": 7199,
      "kab": 7200,
      "lung": 7201,
      "pray": 7202,
      "urist": 7203,
      "vard": 7204,
      "zim": 7205,
      "zato": 7206,
      "orche": 7207,
      "ando": 7208,
      "esome": 7209,
      "asses": 7210,
      "respond": 7211,
      "irina": 7212,
      "raine": 7213,
      "raged": 7214,
      "feed": 7215,
      "tril": 7216,
      "concl": 7217,
      "conrad": 7218,
      "derick": 7219,
      "sonia": 7220,
      "peril": 7221,
      "earn": 7222,
      "udes": 7223,
      "evan": 7224,
      "clint": 7225,
      "embr": 7226,
      "nast": 7227,
      "shatter": 7228,
      "shower": 7229,
      "tycoon": 7230,
      "trium": 7231,
      "guill": 7232,
      "donna": 7233,
      "proud": 7234,
      "visited": 7235,
      "javier": 7236,
      "daring": 7237,
      "names": 7238,
      "madrid": 7239,
      "octo": 7240,
      "variety": 7241,
      "katsu": 7242,
      "tarzan": 7243,
      "2008": 7244,
      "slavery": 7245,
      "joyce": 7246,
      "globe": 7247,
      "shocked": 7248,
      "puppet": 7249,
      "wonderful": 7250,
      "frozen": 7251,
      "israeli": 7252,
      "introduces": 7253,
      "secure": 7254,
      "amorous": 7255,
      "cynthia": 7256,
      "martinez": 7257,
      "klaus": 7258,
      "gemma": 7259,
      "attitude": 7260,
      "ophobia": 7261,
      "sydney": 7262,
      "diplom": 7263,
      "cunning": 7264,
      "flet": 7265,
      "iation": 7266,
      "jag": 7267,
      "ota": 7268,
      "pure": 7269,
      "vag": 7270,
      "zilla": 7271,
      "anat": 7272,
      "inent": 7273,
      "stella": 7274,
      "edo": 7275,
      "chamber": 7276,
      "dez": 7277,
      "rows": 7278,
      "lio": 7279,
      "geta": 7280,
      "hercu": 7281,
      "teers": 7282,
      "ctive": 7283,
      "coo": 7284,
      "boot": 7285,
      "igno": 7286,
      "akira": 7287,
      "pares": 7288,
      "jew": 7289,
      "chet": 7290,
      "despair": 7291,
      "wives": 7292,
      "parties": 7293,
      "county": 7294,
      "otta": 7295,
      "grade": 7296,
      "nightmares": 7297,
      "kenny": 7298,
      "bened": 7299,
      "obst": 7300,
      "biker": 7301,
      "possibly": 7302,
      "scam": 7303,
      "garrett": 7304,
      "draw": 7305,
      "spiral": 7306,
      "anova": 7307,
      "waters": 7308,
      "jenkins": 7309,
      "bullying": 7310,
      "isaac": 7311,
      "rampage": 7312,
      "perspective": 7313,
      "locate": 7314,
      "suspecting": 7315,
      "renee": 7316,
      "renegade": 7317,
      "empty": 7318,
      "occupation": 7319,
      "exploring": 7320,
      "surrounded": 7321,
      "employees": 7322,
      "frederic": 7323,
      "apparently": 7324,
      "graduate": 7325,
      "carnival": 7326,
      "exorc": 7327,
      "juvenile": 7328,
      "lup": 7329,
      "pals": 7330,
      "uto": 7331,
      "uff": 7332,
      "zes": 7333,
      "enberg": 7334,
      "atm": 7335,
      "atsu": 7336,
      "unwitt": 7337,
      "lip": 7338,
      "lore": 7339,
      "ushi": 7340,
      "mans": 7341,
      "marin": 7342,
      "outcast": 7343,
      "wear": 7344,
      "weird": 7345,
      "sheep": 7346,
      "spree": 7347,
      "foe": 7348,
      "pastor": 7349,
      "horn": 7350,
      "grou": 7351,
      "grounds": 7352,
      "strate": 7353,
      "meredith": 7354,
      "reeves": 7355,
      "services": 7356,
      "charm": 7357,
      "ignant": 7358,
      "hend": 7359,
      "link": 7360,
      "lincol": 7361,
      "voye": 7362,
      "goodman": 7363,
      "sequence": 7364,
      "thood": 7365,
      "pursued": 7366,
      "bombing": 7367,
      "rentice": 7368,
      "gabrielle": 7369,
      "approach": 7370,
      "tattoo": 7371,
      "randolph": 7372,
      "fraud": 7373,
      "soft": 7374,
      "narrative": 7375,
      "tensions": 7376,
      "dustin": 7377,
      "fascinating": 7378,
      "unwittingly": 7379,
      "fion": 7380,
      "junk": 7381,
      "pill": 7382,
      "tren": 7383,
      "intr": 7384,
      "ark": 7385,
      "itel": 7386,
      "acular": 7387,
      "worthy": 7388,
      "rip": 7389,
      "chip": 7390,
      "forcing": 7391,
      "fem": 7392,
      "masters": 7393,
      "shell": 7394,
      "plic": 7395,
      "evie": 7396,
      "cannon": 7397,
      "related": 7398,
      "fathers": 7399,
      "miki": 7400,
      "miriam": 7401,
      "countries": 7402,
      "supply": 7403,
      "patrol": 7404,
      "anya": 7405,
      "housewife": 7406,
      "collector": 7407,
      "penelope": 7408,
      "vengeful": 7409,
      "karin": 7410,
      "scoo": 7411,
      "bully": 7412,
      "basil": 7413,
      "swing": 7414,
      "slap": 7415,
      "francoise": 7416,
      "records": 7417,
      "winters": 7418,
      "falk": 7419,
      "adoption": 7420,
      "plantation": 7421,
      "weaver": 7422,
      "guilty": 7423,
      "explosive": 7424,
      "challenged": 7425,
      "companies": 7426,
      "eternal": 7427,
      "carpenter": 7428,
      "lincoln": 7429,
      "dic": 7430,
      "eo": 7431,
      "stell": 7432,
      "stake": 7433,
      "seung": 7434,
      "allo": 7435,
      "toys": 7436,
      "eden": 7437,
      "dek": 7438,
      "bets": 7439,
      "logan": 7440,
      "nego": 7441,
      "hid": 7442,
      "pole": 7443,
      "odys": 7444,
      "string": 7445,
      "girlfriends": 7446,
      "chow": 7447,
      "direction": 7448,
      "kier": 7449,
      "starr": 7450,
      "cesar": 7451,
      "holt": 7452,
      "quez": 7453,
      "busy": 7454,
      "happening": 7455,
      "cats": 7456,
      "frey": 7457,
      "puri": 7458,
      "ordered": 7459,
      "camping": 7460,
      "subway": 7461,
      "difference": 7462,
      "bonnie": 7463,
      "judd": 7464,
      "photography": 7465,
      "explic": 7466,
      "courtney": 7467,
      "tanaka": 7468,
      "demonic": 7469,
      "originally": 7470,
      "graduation": 7471,
      "numer": 7472,
      "crossing": 7473,
      "thailand": 7474,
      "sarandon": 7475,
      "betrayed": 7476,
      "gained": 7477,
      "split": 7478,
      "guards": 7479,
      "patton": 7480,
      "abducted": 7481,
      "episode": 7482,
      "amidst": 7483,
      "giovanni": 7484,
      "chicken": 7485,
      "totally": 7486,
      "cemetery": 7487,
      "cket": 7488,
      "dina": 7489,
      "fits": 7490,
      "range": 7491,
      "rings": 7492,
      "tig": 7493,
      "vist": 7494,
      "alt": 7495,
      "allies": 7496,
      "cases": 7497,
      "rae": 7498,
      "mod": 7499,
      "thers": 7500,
      "ups": 7501,
      "exposed": 7502,
      "inee": 7503,
      "trauma": 7504,
      "navig": 7505,
      "bau": 7506,
      "ksen": 7507,
      "sau": 7508,
      "sale": 7509,
      "active": 7510,
      "poland": 7511,
      "parody": 7512,
      "danish": 7513,
      "boyd": 7514,
      "kerr": 7515,
      "robb": 7516,
      "tomb": 7517,
      "medie": 7518,
      "keller": 7519,
      "ivity": 7520,
      "calling": 7521,
      "everett": 7522,
      "biographical": 7523,
      "mount": 7524,
      "terminal": 7525,
      "vampires": 7526,
      "stalker": 7527,
      "holding": 7528,
      "drown": 7529,
      "concerns": 7530,
      "brennan": 7531,
      "square": 7532,
      "bunch": 7533,
      "sherlock": 7534,
      "claudio": 7535,
      "conditions": 7536,
      "allied": 7537,
      "injury": 7538,
      "barely": 7539,
      "luxury": 7540,
      "philosophy": 7541,
      "fierce": 7542,
      "suzanne": 7543,
      "delinquent": 7544,
      "frustrated": 7545,
      "daryl": 7546,
      "plastic": 7547,
      "zatoichi": 7548,
      "bug": 7549,
      "dare": 7550,
      "eile": 7551,
      "gment": 7552,
      "nash": 7553,
      "pand": 7554,
      "piz": 7555,
      "vre": 7556,
      "heat": 7557,
      "hearing": 7558,
      "inated": 7559,
      "rex": 7560,
      "report": 7561,
      "repair": 7562,
      "stas": 7563,
      "orient": 7564,
      "levy": 7565,
      "semi": 7566,
      "osh": 7567,
      "chasing": 7568,
      "lizz": 7569,
      "forrest": 7570,
      "nev": 7571,
      "ulrich": 7572,
      "meat": 7573,
      "metro": 7574,
      "coe": 7575,
      "agon": 7576,
      "pling": 7577,
      "thrill": 7578,
      "dakota": 7579,
      "spies": 7580,
      "filmmaking": 7581,
      "famed": 7582,
      "odor": 7583,
      "warming": 7584,
      "uger": 7585,
      "ugly": 7586,
      "kok": 7587,
      "lows": 7588,
      "haru": 7589,
      "harper": 7590,
      "iot": 7591,
      "corre": 7592,
      "visual": 7593,
      "garfield": 7594,
      "ify": 7595,
      "elements": 7596,
      "trained": 7597,
      "babys": 7598,
      "jersey": 7599,
      "camille": 7600,
      "welles": 7601,
      "staying": 7602,
      "hayden": 7603,
      "employer": 7604,
      "nelly": 7605,
      "random": 7606,
      "rebels": 7607,
      "mississi": 7608,
      "consider": 7609,
      "colonial": 7610,
      "horrible": 7611,
      "companion": 7612,
      "guardian": 7613,
      "wesley": 7614,
      "thousand": 7615,
      "sorcerer": 7616,
      "seaside": 7617,
      "spectacular": 7618,
      "heiress": 7619,
      "exciting": 7620,
      "sculpt": 7621,
      "ferguson": 7622,
      "eileen": 7623,
      "mississippi": 7624,
      "ave": 7625,
      "ike": 7626,
      "oth": 7627,
      "rho": 7628,
      "wro": 7629,
      "yle": 7630,
      "yves": 7631,
      "arrog": 7632,
      "septem": 7633,
      "maine": 7634,
      "dore": 7635,
      "marks": 7636,
      "laid": 7637,
      "traces": 7638,
      "daw": 7639,
      "afraid": 7640,
      "appre": 7641,
      "perez": 7642,
      "proposal": 7643,
      "cards": 7644,
      "barber": 7645,
      "gler": 7646,
      "jules": 7647,
      "clair": 7648,
      "milan": 7649,
      "yeon": 7650,
      "rachael": 7651,
      "birds": 7652,
      "regain": 7653,
      "believed": 7654,
      "wanting": 7655,
      "awry": 7656,
      "needed": 7657,
      "humph": 7658,
      "controlled": 7659,
      "pierce": 7660,
      "escaping": 7661,
      "presented": 7662,
      "fearless": 7663,
      "plagued": 7664,
      "tatsu": 7665,
      "adopt": 7666,
      "psychiatric": 7667,
      "sibilities": 7668,
      "gifted": 7669,
      "tunnel": 7670,
      "clinic": 7671,
      "appointed": 7672,
      "sniper": 7673,
      "wicz": 7674,
      "katharine": 7675,
      "outrageous": 7676,
      "october": 7677,
      "atmosp": 7678,
      "numerous": 7679,
      "(\"": 7680,
      "cles": 7681,
      "clive": 7682,
      "dv": 7683,
      "lili": 7684,
      "mie": 7685,
      "sandy": 7686,
      "reunited": 7687,
      "stunning": 7688,
      "alicia": 7689,
      "osa": 7690,
      "ament": 7691,
      "ception": 7692,
      "rav": 7693,
      "raped": 7694,
      "pee": 7695,
      "abroad": 7696,
      "apt": 7697,
      "fies": 7698,
      "helene": 7699,
      "render": 7700,
      "bars": 7701,
      "polly": 7702,
      "trials": 7703,
      "gues": 7704,
      "premi": 7705,
      "corner": 7706,
      "nery": 7707,
      "aux": 7708,
      "cerem": 7709,
      "clement": 7710,
      "flame": 7711,
      "roller": 7712,
      "goldberg": 7713,
      "struck": 7714,
      "lancaster": 7715,
      "assassins": 7716,
      "magician": 7717,
      "swamp": 7718,
      "nikki": 7719,
      "cinder": 7720,
      "pink": 7721,
      "hiroshi": 7722,
      "resulting": 7723,
      "painful": 7724,
      "multi": 7725,
      "sparks": 7726,
      "literally": 7727,
      "recruits": 7728,
      "marianne": 7729,
      "status": 7730,
      "ghetto": 7731,
      "dictator": 7732,
      "explain": 7733,
      "details": 7734,
      "eduardo": 7735,
      "arizona": 7736,
      "channel": 7737,
      "medieval": 7738,
      "september": 7739,
      "23": 7740,
      "bited": 7741,
      "bino": 7742,
      "brent": 7743,
      "dj": 7744,
      "ese": 7745,
      "este": 7746,
      "kash": 7747,
      "kward": 7748,
      "lange": 7749,
      "mandy": 7750,
      "nit": 7751,
      "nay": 7752,
      "oleg": 7753,
      "tong": 7754,
      "hep": 7755,
      "reads": 7756,
      "aria": 7757,
      "ilst": 7758,
      "elsen": 7759,
      "chy": 7760,
      "impression": 7761,
      "log": 7762,
      "terence": 7763,
      "maz": 7764,
      "haley": 7765,
      "metho": 7766,
      "dix": 7767,
      "weak": 7768,
      "wearing": 7769,
      "plummer": 7770,
      "points": 7771,
      "filip": 7772,
      "sper": 7773,
      "whilst": 7774,
      "proof": 7775,
      "brink": 7776,
      "disci": 7777,
      "izer": 7778,
      "prepares": 7779,
      "values": 7780,
      "greta": 7781,
      "wilde": 7782,
      "mort": 7783,
      "july": 7784,
      "shape": 7785,
      "garde": 7786,
      "hostile": 7787,
      "classmates": 7788,
      "stops": 7789,
      "bodyguard": 7790,
      "zzo": 7791,
      "watts": 7792,
      "arriving": 7793,
      "rancher": 7794,
      "facility": 7795,
      "satur": 7796,
      "awkward": 7797,
      "dollar": 7798,
      "victory": 7799,
      "courtroom": 7800,
      "confidence": 7801,
      "sweethe": 7802,
      "responsibility": 7803,
      "sheridan": 7804,
      "adapted": 7805,
      "tortured": 7806,
      "randall": 7807,
      "intelligent": 7808,
      "disturbed": 7809,
      "hacker": 7810,
      "inspiring": 7811,
      "umentary": 7812,
      "principal": 7813,
      "fitzgerald": 7814,
      "phenomen": 7815,
      "atlantic": 7816,
      "cigare": 7817,
      "instructor": 7818,
      "donovan": 7819,
      "idyllic": 7820,
      "santiago": 7821,
      "situations": 7822,
      "trilogy": 7823,
      "odyssey": 7824,
      ".”": 7825,
      "70s": 7826,
      "bick": 7827,
      "cate": 7828,
      "foun": 7829,
      "fought": 7830,
      "gres": 7831,
      "kou": 7832,
      "kho": 7833,
      "anno": 7834,
      "orio": 7835,
      "leine": 7836,
      "elimin": 7837,
      "ligh": 7838,
      "iest": 7839,
      "abbott": 7840,
      "meyer": 7841,
      "takas": 7842,
      "content": 7843,
      "butcher": 7844,
      "lesson": 7845,
      "finland": 7846,
      "finished": 7847,
      "athlet": 7848,
      "baxter": 7849,
      "jeop": 7850,
      "barbie": 7851,
      "polic": 7852,
      "merci": 7853,
      "shoes": 7854,
      "crus": 7855,
      "moran": 7856,
      "vaugh": 7857,
      "jah": 7858,
      "treacher": 7859,
      "teller": 7860,
      "closet": 7861,
      "clothes": 7862,
      "putting": 7863,
      "detectives": 7864,
      "prompt": 7865,
      "aires": 7866,
      "frontier": 7867,
      "godzilla": 7868,
      "louisiana": 7869,
      "fleet": 7870,
      "yoo": 7871,
      "rivals": 7872,
      "pursues": 7873,
      "receive": 7874,
      "invention": 7875,
      "hungry": 7876,
      "isabel": 7877,
      "climbing": 7878,
      "punishment": 7879,
      "android": 7880,
      "wicked": 7881,
      "fisherman": 7882,
      "fifteen": 7883,
      "jurgen": 7884,
      "acquain": 7885,
      "dillon": 7886,
      "voyeur": 7887,
      "cinderella": 7888,
      "22": 7889,
      "gis": 7890,
      "jel": 7891,
      "lt": 7892,
      "oka": 7893,
      "pimp": 7894,
      "rhy": 7895,
      "sz": 7896,
      "vance": 7897,
      "xton": 7898,
      "yak": 7899,
      "hector": 7900,
      "stir": 7901,
      "sev": 7902,
      "chatter": 7903,
      "unfaithful": 7904,
      "vernon": 7905,
      "mankind": 7906,
      "haus": 7907,
      "contra": 7908,
      "congress": 7909,
      "brick": 7910,
      "akshay": 7911,
      "offered": 7912,
      "grew": 7913,
      "intelle": 7914,
      "intention": 7915,
      "deput": 7916,
      "banker": 7917,
      "speech": 7918,
      "races": 7919,
      "bility": 7920,
      "transl": 7921,
      "hunted": 7922,
      "sells": 7923,
      "spoiled": 7924,
      "ridge": 7925,
      "freddie": 7926,
      "galax": 7927,
      "limits": 7928,
      "alternate": 7929,
      "throws": 7930,
      "hungarian": 7931,
      "transpor": 7932,
      "soundtrack": 7933,
      "apprentice": 7934,
      "marcello": 7935,
      "individuals": 7936,
      "jump": 7937,
      "customers": 7938,
      "devastated": 7939,
      "guitar": 7940,
      "stairs": 7941,
      "fletcher": 7942,
      "wrote": 7943,
      "intellect": 7944,
      "aer": 7945,
      "athe": 7946,
      "fus": 7947,
      "kara": 7948,
      "pid": 7949,
      "slight": 7950,
      "skate": 7951,
      "whale": 7952,
      "xa": 7953,
      "iner": 7954,
      "lete": 7955,
      "isation": 7956,
      "thi": 7957,
      "thouse": 7958,
      "elabor": 7959,
      "dexter": 7960,
      "unpreced": 7961,
      "lied": 7962,
      "lifel": 7963,
      "hism": 7964,
      "raf": 7965,
      "utter": 7966,
      "manga": 7967,
      "mau": 7968,
      "mathe": 7969,
      "mako": 7970,
      "hao": 7971,
      "diag": 7972,
      "agher": 7973,
      "joke": 7974,
      "gods": 7975,
      "pope": 7976,
      "quit": 7977,
      "sterling": 7978,
      "inevit": 7979,
      "niro": 7980,
      "napo": 7981,
      "aftermath": 7982,
      "broderick": 7983,
      "atti": 7984,
      "barnes": 7985,
      "viewers": 7986,
      "mika": 7987,
      "zealand": 7988,
      "tiff": 7989,
      "frequent": 7990,
      "hunger": 7991,
      "arrived": 7992,
      "julianne": 7993,
      "narration": 7994,
      "thirsty": 7995,
      "successfully": 7996,
      "virginity": 7997,
      "interesting": 7998,
      "seduce": 7999,
      "located": 8000,
      "comedic": 8001,
      "josef": 8002,
      "crosby": 8003,
      "allowed": 8004,
      "laboratory": 8005,
      "bayashi": 8006,
      "refugee": 8007,
      "secution": 8008,
      "advantage": 8009,
      "rescued": 8010,
      "collide": 8011,
      "archival": 8012,
      "valuable": 8013,
      "hercules": 8014,
      "femme": 8015,
      "unprecedented": 8016,
      "aless": 8017,
      "kre": 8018,
      "kne": 8019,
      "ww": 8020,
      "enor": 8021,
      "sts": 8022,
      "ariel": 8023,
      "sevent": 8024,
      "seok": 8025,
      "esis": 8026,
      "aco": 8027,
      "olsen": 8028,
      "decla": 8029,
      "impro": 8030,
      "loan": 8031,
      "combin": 8032,
      "raz": 8033,
      "raising": 8034,
      "nemes": 8035,
      "drome": 8036,
      "pets": 8037,
      "cody": 8038,
      "confused": 8039,
      "myr": 8040,
      "naval": 8041,
      "frater": 8042,
      "turbul": 8043,
      "brow": 8044,
      "shopping": 8045,
      "everywhere": 8046,
      "voo": 8047,
      "mcdonald": 8048,
      "takeshi": 8049,
      "superman": 8050,
      "gory": 8051,
      "doubt": 8052,
      "largest": 8053,
      "yuen": 8054,
      "julien": 8055,
      "madeleine": 8056,
      "saloon": 8057,
      "shipwreck": 8058,
      "believing": 8059,
      "rants": 8060,
      "nicola": 8061,
      "prominent": 8062,
      "walls": 8063,
      "telephone": 8064,
      "holidays": 8065,
      "1944": 8066,
      "carolina": 8067,
      "techni": 8068,
      "elaine": 8069,
      "costello": 8070,
      "humorous": 8071,
      "influential": 8072,
      "officials": 8073,
      "citizen": 8074,
      "hutton": 8075,
      "1920s": 8076,
      "iconic": 8077,
      "mimi": 8078,
      "bogart": 8079,
      "madsen": 8080,
      "humphrey": 8081,
      "napoleon": 8082,
      "abe": 8083,
      "fen": 8084,
      "hren": 8085,
      "jared": 8086,
      "mali": 8087,
      "rass": 8088,
      "tad": 8089,
      "tul": 8090,
      "tier": 8091,
      "whip": 8092,
      "wanders": 8093,
      "yon": 8094,
      "install": 8095,
      "reclusive": 8096,
      "onso": 8097,
      "stical": 8098,
      "stahl": 8099,
      "seal": 8100,
      "keitel": 8101,
      "defe": 8102,
      "roo": 8103,
      "beings": 8104,
      "ima": 8105,
      "neur": 8106,
      "mano": 8107,
      "moham": 8108,
      "tetsu": 8109,
      "divid": 8110,
      "marty": 8111,
      "conven": 8112,
      "igor": 8113,
      "webb": 8114,
      "shepard": 8115,
      "plus": 8116,
      "hasn": 8117,
      "carson": 8118,
      "pai": 8119,
      "evelyn": 8120,
      "clue": 8121,
      "eller": 8122,
      "emmy": 8123,
      "bloss": 8124,
      "blond": 8125,
      "steen": 8126,
      "acted": 8127,
      "merchant": 8128,
      "views": 8129,
      "guin": 8130,
      "denise": 8131,
      "burr": 8132,
      "delic": 8133,
      "shared": 8134,
      "privi": 8135,
      "violin": 8136,
      "drawing": 8137,
      "bigger": 8138,
      "witz": 8139,
      "knox": 8140,
      "diner": 8141,
      "hundre": 8142,
      "zawa": 8143,
      "juliet": 8144,
      "troupe": 8145,
      "regin": 8146,
      "nicol": 8147,
      "fanny": 8148,
      "felt": 8149,
      "rossi": 8150,
      "wolves": 8151,
      "obsessive": 8152,
      "clients": 8153,
      "marrying": 8154,
      "alcoholism": 8155,
      "beaten": 8156,
      "flood": 8157,
      "nakamura": 8158,
      "suburb": 8159,
      "splatter": 8160,
      "idealistic": 8161,
      "mouth": 8162,
      "devastating": 8163,
      "adolescence": 8164,
      "scholars": 8165,
      "mcdowell": 8166,
      "vittorio": 8167,
      "elevator": 8168,
      "methods": 8169,
      "nemesis": 8170,
      "bicy": 8171,
      "dul": 8172,
      "feng": 8173,
      "jug": 8174,
      "jana": 8175,
      "slee": 8176,
      "uan": 8177,
      "wre": 8178,
      "infl": 8179,
      "inadver": 8180,
      "erica": 8181,
      "itarian": 8182,
      "amuse": 8183,
      "rific": 8184,
      "roots": 8185,
      "urb": 8186,
      "forty": 8187,
      "herz": 8188,
      "tea": 8189,
      "haven": 8190,
      "diving": 8191,
      "coal": 8192,
      "igi": 8193,
      "suzu": 8194,
      "bros": 8195,
      "uded": 8196,
      "creep": 8197,
      "rory": 8198,
      "fraser": 8199,
      "stef": 8200,
      "poll": 8201,
      "lukas": 8202,
      "willie": 8203,
      "comprom": 8204,
      "linked": 8205,
      "breed": 8206,
      "kyung": 8207,
      "longtime": 8208,
      "portug": 8209,
      "battling": 8210,
      "sharma": 8211,
      "rosa": 8212,
      "elliot": 8213,
      "addition": 8214,
      "crown": 8215,
      "1970": 8216,
      "2009": 8217,
      "massimo": 8218,
      "confident": 8219,
      "jessie": 8220,
      "piper": 8221,
      "touching": 8222,
      "nicholson": 8223,
      "sophia": 8224,
      "bunny": 8225,
      "fernandez": 8226,
      "commitment": 8227,
      "predict": 8228,
      "recruited": 8229,
      "cruelty": 8230,
      "gallagher": 8231,
      "frederick": 8232,
      "disguise": 8233,
      "dallas": 8234,
      "absurd": 8235,
      "writers": 8236,
      "amount": 8237,
      "eagle": 8238,
      "uristic": 8239,
      "negoti": 8240,
      "hundreds": 8241,
      "80": 8242,
      "ape": 8243,
      "gale": 8244,
      "gould": 8245,
      "jans": 8246,
      "mca": 8247,
      "miz": 8248,
      "oi": 8249,
      "oit": 8250,
      "plea": 8251,
      "pino": 8252,
      "saga": 8253,
      "tone": 8254,
      "uch": 8255,
      "vale": 8256,
      "yus": 8257,
      "ст": 8258,
      "analy": 8259,
      "reward": 8260,
      "beatty": 8261,
      "liano": 8262,
      "rafa": 8263,
      "tet": 8264,
      "nosed": 8265,
      "hawa": 8266,
      "arez": 8267,
      "sheila": 8268,
      "angie": 8269,
      "cara": 8270,
      "newton": 8271,
      "newfound": 8272,
      "grit": 8273,
      "athlete": 8274,
      "turmo": 8275,
      "broker": 8276,
      "monroe": 8277,
      "worldwide": 8278,
      "lando": 8279,
      "shots": 8280,
      "kobayashi": 8281,
      "dub": 8282,
      "sions": 8283,
      "below": 8284,
      "garage": 8285,
      "mayhem": 8286,
      "senator": 8287,
      "classmate": 8288,
      "legion": 8289,
      "elephant": 8290,
      "zzle": 8291,
      "lightning": 8292,
      "involve": 8293,
      "gonz": 8294,
      "dolores": 8295,
      "pays": 8296,
      "origins": 8297,
      "destroying": 8298,
      "eastwood": 8299,
      "aided": 8300,
      "hatred": 8301,
      "bourne": 8302,
      "mumbai": 8303,
      "equally": 8304,
      "sensitive": 8305,
      "coffin": 8306,
      "confronts": 8307,
      "aristocrat": 8308,
      "argentina": 8309,
      "preparing": 8310,
      "rapidly": 8311,
      "galaxy": 8312,
      "voodoo": 8313,
      "ober": 8314,
      "wanda": 8315,
      "eras": 8316,
      "rea": 8317,
      "arg": 8318,
      "secl": 8319,
      "toby": 8320,
      "ico": 8321,
      "kei": 8322,
      "caes": 8323,
      "beating": 8324,
      "imperson": 8325,
      "adjust": 8326,
      "hig": 8327,
      "moses": 8328,
      "hak": 8329,
      "laine": 8330,
      "outlaws": 8331,
      "brun": 8332,
      "wara": 8333,
      "cargo": 8334,
      "trains": 8335,
      "crashes": 8336,
      "guing": 8337,
      "covered": 8338,
      "centu": 8339,
      "lucia": 8340,
      "realities": 8341,
      "buen": 8342,
      "hui": 8343,
      "brew": 8344,
      "gave": 8345,
      "ruled": 8346,
      "arsgard": 8347,
      "rowing": 8348,
      "heading": 8349,
      "sensu": 8350,
      "andrei": 8351,
      "sanchez": 8352,
      "accidental": 8353,
      "ships": 8354,
      "rosal": 8355,
      "thorne": 8356,
      "distance": 8357,
      "addicted": 8358,
      "publisher": 8359,
      "ticket": 8360,
      "leonardo": 8361,
      "18th": 8362,
      "mutual": 8363,
      "pascal": 8364,
      "tently": 8365,
      "nikola": 8366,
      "transforms": 8367,
      "skarsgard": 8368,
      "dramat": 8369,
      "valeria": 8370,
      "mummy": 8371,
      "flashbacks": 8372,
      "syndrome": 8373,
      "sensation": 8374,
      "imaginary": 8375,
      "mechanic": 8376,
      "mitchum": 8377,
      "nathalie": 8378,
      "escort": 8379,
      "nikolai": 8380,
      "destructive": 8381,
      "fiona": 8382,
      "60s": 8383,
      "dmit": 8384,
      "ified": 8385,
      "lud": 8386,
      "mcla": 8387,
      "yach": 8388,
      "hest": 8389,
      "encou": 8390,
      "stakes": 8391,
      "ardi": 8392,
      "lew": 8393,
      "omin": 8394,
      "esh": 8395,
      "depressed": 8396,
      "fet": 8397,
      "pekka": 8398,
      "dot": 8399,
      "marjor": 8400,
      "bower": 8401,
      "artic": 8402,
      "ousing": 8403,
      "pocket": 8404,
      "apol": 8405,
      "perkins": 8406,
      "provin": 8407,
      "fai": 8408,
      "horses": 8409,
      "horrifying": 8410,
      "gross": 8411,
      "nade": 8412,
      "turkish": 8413,
      "jection": 8414,
      "minis": 8415,
      "lower": 8416,
      "ffalo": 8417,
      "desol": 8418,
      "corin": 8419,
      "luca": 8420,
      "glamorous": 8421,
      "wax": 8422,
      "belt": 8423,
      "preser": 8424,
      "robbie": 8425,
      "voices": 8426,
      "gavin": 8427,
      "mccor": 8428,
      "hank": 8429,
      "runner": 8430,
      "bike": 8431,
      "curious": 8432,
      "penal": 8433,
      "gunfight": 8434,
      "destined": 8435,
      "occult": 8436,
      "nico": 8437,
      "severe": 8438,
      "sunny": 8439,
      "desperation": 8440,
      "beatrice": 8441,
      "portrays": 8442,
      "dunne": 8443,
      "tucker": 8444,
      "conflicts": 8445,
      "sacrific": 8446,
      "immigration": 8447,
      "trailer": 8448,
      "literature": 8449,
      "builds": 8450,
      "morrison": 8451,
      "gentleman": 8452,
      "vicky": 8453,
      "occasion": 8454,
      "conservative": 8455,
      "philippines": 8456,
      "retrieve": 8457,
      "getaway": 8458,
      "reginald": 8459,
      "turmoil": 8460,
      "marjorie": 8461,
      "lol": 8462,
      "phot": 8463,
      "ss": 8464,
      "wim": 8465,
      "init": 8466,
      "inson": 8467,
      "rena": 8468,
      "request": 8469,
      "theme": 8470,
      "theless": 8471,
      "secut": 8472,
      "alaska": 8473,
      "esther": 8474,
      "thwart": 8475,
      "accompany": 8476,
      "elusive": 8477,
      "oll": 8478,
      "deer": 8479,
      "decap": 8480,
      "illard": 8481,
      "mah": 8482,
      "tear": 8483,
      "abs": 8484,
      "meh": 8485,
      "lax": 8486,
      "gow": 8487,
      "exclusive": 8488,
      "angled": 8489,
      "quet": 8490,
      "gros": 8491,
      "emen": 8492,
      "renato": 8493,
      "frame": 8494,
      "fritz": 8495,
      "strat": 8496,
      "cummings": 8497,
      "barrett": 8498,
      "koji": 8499,
      "horrors": 8500,
      "harri": 8501,
      "interrog": 8502,
      "luigi": 8503,
      "duff": 8504,
      "ample": 8505,
      "christensen": 8506,
      "kerry": 8507,
      "gail": 8508,
      "darren": 8509,
      "delight": 8510,
      "chases": 8511,
      "prior": 8512,
      "restore": 8513,
      "fuji": 8514,
      "loser": 8515,
      "grieving": 8516,
      "rolling": 8517,
      "regina": 8518,
      "futuristic": 8519,
      "kinski": 8520,
      "determination": 8521,
      "imagine": 8522,
      "1999": 8523,
      "aidan": 8524,
      "bourgeo": 8525,
      "montana": 8526,
      "separation": 8527,
      "bumbling": 8528,
      "blanche": 8529,
      "isabella": 8530,
      "arrange": 8531,
      "emerges": 8532,
      "istanbul": 8533,
      "latin": 8534,
      "klein": 8535,
      "designed": 8536,
      "zachary": 8537,
      "failure": 8538,
      "tribute": 8539,
      "average": 8540,
      "chopra": 8541,
      "butterfly": 8542,
      "unfold": 8543,
      "episodes": 8544,
      "dvd": 8545,
      "inadvertently": 8546,
      ",”": 8547,
      "500": 8548,
      "hicks": 8549,
      "lith": 8550,
      "ramp": 8551,
      "sitting": 8552,
      "inmates": 8553,
      "stacy": 8554,
      "islam": 8555,
      "oui": 8556,
      "asian": 8557,
      "chia": 8558,
      "chio": 8559,
      "entre": 8560,
      "gency": 8561,
      "rooney": 8562,
      "advis": 8563,
      "rages": 8564,
      "rahul": 8565,
      "mai": 8566,
      "mastro": 8567,
      "pei": 8568,
      "cting": 8569,
      "mey": 8570,
      "dilem": 8571,
      "marital": 8572,
      "cobb": 8573,
      "taine": 8574,
      "trum": 8575,
      "upcoming": 8576,
      "antics": 8577,
      "expression": 8578,
      "poo": 8579,
      "davi": 8580,
      "sonny": 8581,
      "ianni": 8582,
      "pawn": 8583,
      "vienna": 8584,
      "dish": 8585,
      "disastr": 8586,
      "colony": 8587,
      "notice": 8588,
      "wash": 8589,
      "otherwise": 8590,
      "boyle": 8591,
      "covers": 8592,
      "interracial": 8593,
      "giallo": 8594,
      "epide": 8595,
      "sammy": 8596,
      "freak": 8597,
      "jima": 8598,
      "trainer": 8599,
      "angelo": 8600,
      "parisian": 8601,
      "casual": 8602,
      "mira": 8603,
      "homeland": 8604,
      "germans": 8605,
      "socialite": 8606,
      "2000": 8607,
      "claiming": 8608,
      "sixteen": 8609,
      "axe": 8610,
      "presidential": 8611,
      "performed": 8612,
      "bacon": 8613,
      "dalton": 8614,
      "awaits": 8615,
      "audiences": 8616,
      "liberation": 8617,
      "launch": 8618,
      "faye": 8619,
      "awakens": 8620,
      "doomed": 8621,
      "hypnot": 8622,
      "relentless": 8623,
      "necessary": 8624,
      "easily": 8625,
      "fantasies": 8626,
      "elaborate": 8627,
      "enormous": 8628,
      "caesar": 8629,
      "photos": 8630,
      "initial": 8631,
      "bourgeois": 8632,
      "iors": 8633,
      "jed": 8634,
      "jør": 8635,
      "mble": 8636,
      "pact": 8637,
      "sven": 8638,
      "slater": 8639,
      "zia": 8640,
      "infant": 8641,
      "erika": 8642,
      "arily": 8643,
      "lex": 8644,
      "ambass": 8645,
      "rios": 8646,
      "riot": 8647,
      "debra": 8648,
      "bei": 8649,
      "bears": 8650,
      "lod": 8651,
      "dose": 8652,
      "goo": 8653,
      "exposes": 8654,
      "spread": 8655,
      "bras": 8656,
      "akis": 8657,
      "pavel": 8658,
      "nielsen": 8659,
      "cream": 8660,
      "mondo": 8661,
      "chemist": 8662,
      "fuller": 8663,
      "siber": 8664,
      "gregg": 8665,
      "nervous": 8666,
      "mori": 8667,
      "missi": 8668,
      "borough": 8669,
      "benoit": 8670,
      "cedes": 8671,
      "mccl": 8672,
      "chased": 8673,
      "tense": 8674,
      "cative": 8675,
      "goodbye": 8676,
      "journeys": 8677,
      "passage": 8678,
      "mitsu": 8679,
      "kimber": 8680,
      "llis": 8681,
      "leonid": 8682,
      "joining": 8683,
      "countess": 8684,
      "kirby": 8685,
      "nolan": 8686,
      "activity": 8687,
      "surprising": 8688,
      "smooth": 8689,
      "francesco": 8690,
      "whitaker": 8691,
      "decisions": 8692,
      "valentina": 8693,
      "kruger": 8694,
      "stumble": 8695,
      "debts": 8696,
      "rescues": 8697,
      "sorcery": 8698,
      "arranges": 8699,
      "supposedly": 8700,
      "infected": 8701,
      "rizio": 8702,
      "travelling": 8703,
      "xavier": 8704,
      "fraternity": 8705,
      "hawaii": 8706,
      "epidemic": 8707,
      ".'": 8708,
      "bapt": 8709,
      "jong": 8710,
      "nab": 8711,
      "nino": 8712,
      "pou": 8713,
      "pace": 8714,
      "scare": 8715,
      "tas": 8716,
      "till": 8717,
      "xen": 8718,
      "revi": 8719,
      "ority": 8720,
      "arjun": 8721,
      "leop": 8722,
      "section": 8723,
      "tol": 8724,
      "amit": 8725,
      "cag": 8726,
      "forth": 8727,
      "rah": 8728,
      "rai": 8729,
      "roma": 8730,
      "iding": 8731,
      "maca": 8732,
      "nove": 8733,
      "marta": 8734,
      "marvin": 8735,
      "trace": 8736,
      "uprising": 8737,
      "oppon": 8738,
      "poit": 8739,
      "myers": 8740,
      "nixon": 8741,
      "phony": 8742,
      "jews": 8743,
      "landlord": 8744,
      "served": 8745,
      "greater": 8746,
      "owns": 8747,
      "burned": 8748,
      "brey": 8749,
      "cedric": 8750,
      "formula": 8751,
      "bias": 8752,
      "annab": 8753,
      "carefree": 8754,
      "lori": 8755,
      "legit": 8756,
      "phyllis": 8757,
      "element": 8758,
      "granddaughter": 8759,
      "thirteen": 8760,
      "credit": 8761,
      "laurel": 8762,
      "cutting": 8763,
      "cinemato": 8764,
      "dunn": 8765,
      "numbers": 8766,
      "amongst": 8767,
      "bradford": 8768,
      "blindness": 8769,
      "fatale": 8770,
      "difficulties": 8771,
      "dumped": 8772,
      "speaking": 8773,
      "coleman": 8774,
      "trafficking": 8775,
      "paulo": 8776,
      "promotion": 8777,
      "tormented": 8778,
      "mockumentary": 8779,
      "billionaire": 8780,
      "conversation": 8781,
      "mathieu": 8782,
      "joaquin": 8783,
      "stardom": 8784,
      "triumph": 8785,
      "scooby": 8786,
      "amusement": 8787,
      "centuries": 8788,
      "mastroianni": 8789,
      "bugs": 8790,
      "dus": 8791,
      "dhar": 8792,
      "fled": 8793,
      "flies": 8794,
      "gins": 8795,
      "mp": 8796,
      "ote": 8797,
      "pitt": 8798,
      "rath": 8799,
      "sag": 8800,
      "sson": 8801,
      "tos": 8802,
      "troy": 8803,
      "zman": 8804,
      "ни": 8805,
      "onov": 8806,
      "tomorrow": 8807,
      "espion": 8808,
      "accus": 8809,
      "chal": 8810,
      "genevie": 8811,
      "deem": 8812,
      "detro": 8813,
      "seppe": 8814,
      "uncertain": 8815,
      "adi": 8816,
      "lister": 8817,
      "ligan": 8818,
      "abol": 8819,
      "boom": 8820,
      "johans": 8821,
      "arena": 8822,
      "spa": 8823,
      "suicidal": 8824,
      "province": 8825,
      "ours": 8826,
      "traitor": 8827,
      "blame": 8828,
      "brody": 8829,
      "actic": 8830,
      "barr": 8831,
      "choo": 8832,
      "wasn": 8833,
      "okada": 8834,
      "schoolteacher": 8835,
      "volcano": 8836,
      "solid": 8837,
      "objects": 8838,
      "trey": 8839,
      "rub": 8840,
      "milo": 8841,
      "chile": 8842,
      "anov": 8843,
      "ahmed": 8844,
      "survives": 8845,
      "songwriter": 8846,
      "tank": 8847,
      "concerned": 8848,
      "limited": 8849,
      "alternative": 8850,
      "screenwriter": 8851,
      "cathy": 8852,
      "inherited": 8853,
      "entertainer": 8854,
      "respective": 8855,
      "occurs": 8856,
      "giuseppe": 8857,
      "comfortable": 8858,
      "iranian": 8859,
      "frightening": 8860,
      "adolescent": 8861,
      "rookie": 8862,
      "cavalry": 8863,
      "groups": 8864,
      "hepburn": 8865,
      "intellectual": 8866,
      "genevieve": 8867,
      "\")": 8868,
      "35": 8869,
      "flu": 8870,
      "fury": 8871,
      "gat": 8872,
      "jal": 8873,
      "nations": 8874,
      "nana": 8875,
      "sut": 8876,
      "udo": 8877,
      "vu": 8878,
      "zon": 8879,
      "zap": 8880,
      "inen": 8881,
      "rev": 8882,
      "ennes": 8883,
      "arise": 8884,
      "lester": 8885,
      "ilo": 8886,
      "iced": 8887,
      "caan": 8888,
      "cht": 8889,
      "bea": 8890,
      "ays": 8891,
      "habit": 8892,
      "abused": 8893,
      "abilities": 8894,
      "connell": 8895,
      "weis": 8896,
      "wegian": 8897,
      "pathetic": 8898,
      "gris": 8899,
      "viking": 8900,
      "risks": 8901,
      "shat": 8902,
      "brock": 8903,
      "shoe": 8904,
      "parade": 8905,
      "print": 8906,
      "morton": 8907,
      "wade": 8908,
      "alej": 8909,
      "hench": 8910,
      "bana": 8911,
      "gaard": 8912,
      "flam": 8913,
      "bikin": 8914,
      "cub": 8915,
      "itions": 8916,
      "handle": 8917,
      "indiana": 8918,
      "annette": 8919,
      "stones": 8920,
      "stuff": 8921,
      "artistic": 8922,
      "picks": 8923,
      "sorority": 8924,
      "gilles": 8925,
      "kaye": 8926,
      "protecting": 8927,
      "sabotage": 8928,
      "ritter": 8929,
      "theatrical": 8930,
      "barton": 8931,
      "kitty": 8932,
      "reincar": 8933,
      "scale": 8934,
      "cheerleader": 8935,
      "confession": 8936,
      "receiving": 8937,
      "avail": 8938,
      "jakob": 8939,
      "candidate": 8940,
      "determine": 8941,
      "method": 8942,
      "proceeds": 8943,
      "enthusia": 8944,
      "arrogant": 8945,
      "deputy": 8946,
      "lifelong": 8947,
      "espionage": 8948,
      "detroit": 8949,
      "ee": 8950,
      "finger": 8951,
      "groom": 8952,
      "kher": 8953,
      "kry": 8954,
      "lur": 8955,
      "nd": 8956,
      "nude": 8957,
      "pip": 8958,
      "skill": 8959,
      "sending": 8960,
      "yana": 8961,
      "но": 8962,
      "erup": 8963,
      "resear": 8964,
      "atu": 8965,
      "tow": 8966,
      "ingen": 8967,
      "edna": 8968,
      "kest": 8969,
      "vester": 8970,
      "drick": 8971,
      "tee": 8972,
      "tears": 8973,
      "marcia": 8974,
      "costu": 8975,
      "confin": 8976,
      "artif": 8977,
      "anged": 8978,
      "stereo": 8979,
      "warfare": 8980,
      "blum": 8981,
      "hippie": 8982,
      "sham": 8983,
      "shame": 8984,
      "monaster": 8985,
      "landing": 8986,
      "colomb": 8987,
      "harass": 8988,
      "guire": 8989,
      "iously": 8990,
      "precious": 8991,
      "jude": 8992,
      "burden": 8993,
      "suppor": 8994,
      "aterina": 8995,
      "drey": 8996,
      "norwegian": 8997,
      "solar": 8998,
      "talents": 8999,
      "shaun": 9000,
      "possibility": 9001,
      "iere": 9002,
      "profit": 9003,
      "watches": 9004,
      "hypo": 9005,
      "cassel": 9006,
      "survived": 9007,
      "2010": 9008,
      "legends": 9009,
      "vyn": 9010,
      "crooks": 9011,
      "devon": 9012,
      "bridget": 9013,
      "pulled": 9014,
      "1990s": 9015,
      "cindy": 9016,
      "molina": 9017,
      "delivers": 9018,
      "retta": 9019,
      "downey": 9020,
      "houses": 9021,
      "houston": 9022,
      "quarter": 9023,
      "convention": 9024,
      "hackman": 9025,
      "hitchcock": 9026,
      "awakening": 9027,
      "kingsley": 9028,
      "discuss": 9029,
      "cecilia": 9030,
      "traumatic": 9031,
      "quirky": 9032,
      "prejudice": 9033,
      "library": 9034,
      "orchestra": 9035,
      "shattered": 9036,
      "cooking": 9037,
      "obstacles": 9038,
      "pizza": 9039,
      "buenos": 9040,
      "ambassador": 9041,
      "november": 9042,
      "costume": 9043,
      "bits": 9044,
      "cie": 9045,
      "frog": 9046,
      "pare": 9047,
      "uchi": 9048,
      "zard": 9049,
      "resem": 9050,
      "enni": 9051,
      "onte": 9052,
      "orson": 9053,
      "archer": 9054,
      "riel": 9055,
      "elise": 9056,
      "elding": 9057,
      "chart": 9058,
      "entangled": 9059,
      "rode": 9060,
      "unconventional": 9061,
      "liver": 9062,
      "lots": 9063,
      "loot": 9064,
      "cey": 9065,
      "verted": 9066,
      "managed": 9067,
      "conscience": 9068,
      "exile": 9069,
      "pod": 9070,
      "quist": 9071,
      "arya": 9072,
      "performer": 9073,
      "riches": 9074,
      "uddin": 9075,
      "emig": 9076,
      "rish": 9077,
      "shun": 9078,
      "bauer": 9079,
      "chemic": 9080,
      "barker": 9081,
      "harm": 9082,
      "wire": 9083,
      "offering": 9084,
      "dynasty": 9085,
      "nero": 9086,
      "misfit": 9087,
      "buys": 9088,
      "hardt": 9089,
      "norris": 9090,
      "hanks": 9091,
      "delon": 9092,
      "autum": 9093,
      "walken": 9094,
      "biological": 9095,
      "milk": 9096,
      "courts": 9097,
      "jenna": 9098,
      "dealers": 9099,
      "dreaming": 9100,
      "scottish": 9101,
      "stream": 9102,
      "included": 9103,
      "promising": 9104,
      "bonds": 9105,
      "targets": 9106,
      "2004": 9107,
      "fleck": 9108,
      "payne": 9109,
      "adulthood": 9110,
      "hawkins": 9111,
      "bearing": 9112,
      "elias": 9113,
      "andersson": 9114,
      "affections": 9115,
      "cousins": 9116,
      "siege": 9117,
      "chapter": 9118,
      "nadia": 9119,
      "scrup": 9120,
      "manipulation": 9121,
      "intentions": 9122,
      "bronson": 9123,
      "humiliation": 9124,
      "pornography": 9125,
      "21st": 9126,
      "genetic": 9127,
      "commentary": 9128,
      "concentration": 9129,
      "forgett": 9130,
      "dawson": 9131,
      "tatsuya": 9132,
      "cigarette": 9133,
      "turbulent": 9134,
      "dmitri": 9135,
      "disastrous": 9136,
      "bikini": 9137,
      "bess": 9138,
      "czy": 9139,
      "dwar": 9140,
      "dwell": 9141,
      "kine": 9142,
      "khar": 9143,
      "lton": 9144,
      "oid": 9145,
      "sis": 9146,
      "vand": 9147,
      "wl": 9148,
      "remembers": 9149,
      "recounts": 9150,
      "thered": 9151,
      "orph": 9152,
      "lei": 9153,
      "seat": 9154,
      "omo": 9155,
      "acon": 9156,
      "rifle": 9157,
      "dear": 9158,
      "unrequ": 9159,
      "unforgett": 9160,
      "forsy": 9161,
      "forgiven": 9162,
      "raven": 9163,
      "fest": 9164,
      "iders": 9165,
      "division": 9166,
      "divine": 9167,
      "marlon": 9168,
      "poem": 9169,
      "afford": 9170,
      "apar": 9171,
      "proto": 9172,
      "evo": 9173,
      "insists": 9174,
      "dispat": 9175,
      "athon": 9176,
      "mercedes": 9177,
      "venus": 9178,
      "preacher": 9179,
      "oki": 9180,
      "stark": 9181,
      "bands": 9182,
      "huang": 9183,
      "wsky": 9184,
      "alem": 9185,
      "housekeeper": 9186,
      "mcgregor": 9187,
      "flan": 9188,
      "ruins": 9189,
      "studying": 9190,
      "cursed": 9191,
      "pena": 9192,
      "tennis": 9193,
      "novels": 9194,
      "heroine": 9195,
      "schwar": 9196,
      "billie": 9197,
      "jiro": 9198,
      "belief": 9199,
      "studi": 9200,
      "psychology": 9201,
      "bankrupt": 9202,
      "christianity": 9203,
      "stalking": 9204,
      "bbs": 9205,
      "greenwood": 9206,
      "wyck": 9207,
      "protective": 9208,
      "axel": 9209,
      "sherman": 9210,
      "cassidy": 9211,
      "mackenzie": 9212,
      "potter": 9213,
      "hustler": 9214,
      "chapman": 9215,
      "statue": 9216,
      "johannes": 9217,
      "focusing": 9218,
      "yuriy": 9219,
      "unleashes": 9220,
      "cynical": 9221,
      "skeleton": 9222,
      "adolf": 9223,
      "ferrer": 9224,
      "infiltrate": 9225,
      "chandler": 9226,
      "resources": 9227,
      "daisy": 9228,
      "slapstick": 9229,
      "suzuki": 9230,
      "decapitation": 9231,
      "poitier": 9232,
      "monastery": 9233,
      "unrequited": 9234,
      "ales": 9235,
      "cic": 9236,
      "dud": 9237,
      "fis": 9238,
      "gag": 9239,
      "ience": 9240,
      "kap": 9241,
      "nosis": 9242,
      "oak": 9243,
      "ored": 9244,
      "pio": 9245,
      "ри": 9246,
      "reel": 9247,
      "reminis": 9248,
      "onds": 9249,
      "orlando": 9250,
      "isle": 9251,
      "osuke": 9252,
      "toxic": 9253,
      "oms": 9254,
      "respected": 9255,
      "chilling": 9256,
      "roast": 9257,
      "iris": 9258,
      "unsuspecting": 9259,
      "composed": 9260,
      "rains": 9261,
      "neu": 9262,
      "romero": 9263,
      "mored": 9264,
      "doors": 9265,
      "condem": 9266,
      "pow": 9267,
      "sures": 9268,
      "paxton": 9269,
      "grass": 9270,
      "vijay": 9271,
      "kingpin": 9272,
      "fires": 9273,
      "baum": 9274,
      "canux": 9275,
      "relli": 9276,
      "sier": 9277,
      "ffs": 9278,
      "harvest": 9279,
      "notices": 9280,
      "guchi": 9281,
      "correspond": 9282,
      "ppel": 9283,
      "overnight": 9284,
      "willem": 9285,
      "ampton": 9286,
      "graves": 9287,
      "schools": 9288,
      "intends": 9289,
      "aume": 9290,
      "cyril": 9291,
      "bread": 9292,
      "robbing": 9293,
      "scout": 9294,
      "superstar": 9295,
      "superior": 9296,
      "simulated": 9297,
      "malone": 9298,
      "witches": 9299,
      "janitor": 9300,
      "communism": 9301,
      "2011": 9302,
      "gged": 9303,
      "personalities": 9304,
      "exploits": 9305,
      "hopeless": 9306,
      "confusion": 9307,
      "drops": 9308,
      "journalism": 9309,
      "carolyn": 9310,
      "wyatt": 9311,
      "hurric": 9312,
      "performs": 9313,
      "montreal": 9314,
      "sleepy": 9315,
      "executed": 9316,
      "roddy": 9317,
      "newlywed": 9318,
      "literary": 9319,
      "dressed": 9320,
      "loosely": 9321,
      "golf": 9322,
      "partnership": 9323,
      "bjorn": 9324,
      "received": 9325,
      "harmony": 9326,
      "closing": 9327,
      "archaeologist": 9328,
      "swordsman": 9329,
      "aleksey": 9330,
      "alysis": 9331,
      "hapless": 9332,
      "benedict": 9333,
      "drowning": 9334,
      "sweetheart": 9335,
      "bicycle": 9336,
      "gritty": 9337,
      "provincial": 9338,
      "absence": 9339,
      "researcher": 9340,
      "autumn": 9341,
      "canuxploitation": 9342,
      "80s": 9343,
      "90": 9344,
      "aval": 9345,
      "bam": 9346,
      "dab": 9347,
      "fang": 9348,
      "gb": 9349,
      "hs": 9350,
      "ladd": 9351,
      "latter": 9352,
      "mch": 9353,
      "zin": 9354,
      "enko": 9355,
      "stiller": 9356,
      "alps": 9357,
      "ilation": 9358,
      "acing": 9359,
      "chong": 9360,
      "devis": 9361,
      "devo": 9362,
      "irons": 9363,
      "imate": 9364,
      "lively": 9365,
      "uta": 9366,
      "usz": 9367,
      "moth": 9368,
      "mathem": 9369,
      "nostal": 9370,
      "haas": 9371,
      "doyle": 9372,
      "byron": 9373,
      "conway": 9374,
      "joo": 9375,
      "plum": 9376,
      "quits": 9377,
      "apache": 9378,
      "caring": 9379,
      "vivian": 9380,
      "disillusion": 9381,
      "bliss": 9382,
      "shack": 9383,
      "venture": 9384,
      "atten": 9385,
      "rella": 9386,
      "sights": 9387,
      "charms": 9388,
      "overweight": 9389,
      "interrupted": 9390,
      "kiy": 9391,
      "identities": 9392,
      "compass": 9393,
      "compelling": 9394,
      "aubrey": 9395,
      "depth": 9396,
      "breast": 9397,
      "jaime": 9398,
      "susanna": 9399,
      "loner": 9400,
      "spacecraft": 9401,
      "slim": 9402,
      "godd": 9403,
      "culmin": 9404,
      "clips": 9405,
      "schemes": 9406,
      "kovich": 9407,
      "mighty": 9408,
      "surprises": 9409,
      "stockholm": 9410,
      "brandt": 9411,
      "sylvester": 9412,
      "contend": 9413,
      "inherits": 9414,
      "konstant": 9415,
      "signific": 9416,
      "quarters": 9417,
      "boundaries": 9418,
      "flowers": 9419,
      "colorful": 9420,
      "mistakenly": 9421,
      "fascinated": 9422,
      "palestin": 9423,
      "suggests": 9424,
      "masturb": 9425,
      "matthias": 9426,
      "pleasence": 9427,
      "thierry": 9428,
      "phenomenon": 9429,
      "vaughn": 9430,
      "scholarship": 9431,
      "yacht": 9432,
      "cagney": 9433,
      "chooses": 9434,
      "27": 9435,
      "aus": 9436,
      "ailing": 9437,
      "bite": 9438,
      "dna": 9439,
      "eck": 9440,
      "fers": 9441,
      "gart": 9442,
      "gates": 9443,
[...]
